// Binary Wake Word Detector - tiny_temporal_5kb
// Input: 79x10x1 MFCC features  
// Output: 1 value (probability of "Happy" spoken by others)
//   > 0.5: Others saying "Happy"
//   < 0.5: Any other words
// Size: 8056 bytes (7.9 KB)
// Compatible with ESP32 (Arena: ~15-25KB for ultra-tiny models)

#ifndef TINY_TEMPORAL_5KB_H
#define TINY_TEMPORAL_5KB_H

const unsigned int happy_model_len = 8056;
const unsigned char happy_model[] = {
  0x1c, 0x00, 0x00, 0x00, 0x54, 0x46, 0x4c, 0x33, 0x14, 0x00, 0x20, 0x00,
  0x1c, 0x00, 0x18, 0x00, 0x14, 0x00, 0x10, 0x00, 0x0c, 0x00, 0x00, 0x00,
  0x08, 0x00, 0x04, 0x00, 0x14, 0x00, 0x00, 0x00, 0x1c, 0x00, 0x00, 0x00,
  0x8c, 0x00, 0x00, 0x00, 0xe4, 0x00, 0x00, 0x00, 0x60, 0x12, 0x00, 0x00,
  0x70, 0x12, 0x00, 0x00, 0xe4, 0x1e, 0x00, 0x00, 0x03, 0x00, 0x00, 0x00,
  0x01, 0x00, 0x00, 0x00, 0x04, 0x00, 0x00, 0x00, 0x3e, 0xed, 0xff, 0xff,
  0x0c, 0x00, 0x00, 0x00, 0x1c, 0x00, 0x00, 0x00, 0x3c, 0x00, 0x00, 0x00,
  0x0f, 0x00, 0x00, 0x00, 0x73, 0x65, 0x72, 0x76, 0x69, 0x6e, 0x67, 0x5f,
  0x64, 0x65, 0x66, 0x61, 0x75, 0x6c, 0x74, 0x00, 0x01, 0x00, 0x00, 0x00,
  0x04, 0x00, 0x00, 0x00, 0x90, 0xff, 0xff, 0xff, 0x14, 0x00, 0x00, 0x00,
  0x04, 0x00, 0x00, 0x00, 0x08, 0x00, 0x00, 0x00, 0x6f, 0x75, 0x74, 0x70,
  0x75, 0x74, 0x5f, 0x30, 0x00, 0x00, 0x00, 0x00, 0x01, 0x00, 0x00, 0x00,
  0x04, 0x00, 0x00, 0x00, 0x4a, 0xee, 0xff, 0xff, 0x04, 0x00, 0x00, 0x00,
  0x0d, 0x00, 0x00, 0x00, 0x69, 0x6e, 0x70, 0x75, 0x74, 0x5f, 0x6c, 0x61,
  0x79, 0x65, 0x72, 0x5f, 0x35, 0x00, 0x00, 0x00, 0x02, 0x00, 0x00, 0x00,
  0x34, 0x00, 0x00, 0x00, 0x04, 0x00, 0x00, 0x00, 0xdc, 0xff, 0xff, 0xff,
  0x17, 0x00, 0x00, 0x00, 0x04, 0x00, 0x00, 0x00, 0x13, 0x00, 0x00, 0x00,
  0x43, 0x4f, 0x4e, 0x56, 0x45, 0x52, 0x53, 0x49, 0x4f, 0x4e, 0x5f, 0x4d,
  0x45, 0x54, 0x41, 0x44, 0x41, 0x54, 0x41, 0x00, 0x08, 0x00, 0x0c, 0x00,
  0x08, 0x00, 0x04, 0x00, 0x08, 0x00, 0x00, 0x00, 0x16, 0x00, 0x00, 0x00,
  0x04, 0x00, 0x00, 0x00, 0x13, 0x00, 0x00, 0x00, 0x6d, 0x69, 0x6e, 0x5f,
  0x72, 0x75, 0x6e, 0x74, 0x69, 0x6d, 0x65, 0x5f, 0x76, 0x65, 0x72, 0x73,
  0x69, 0x6f, 0x6e, 0x00, 0x18, 0x00, 0x00, 0x00, 0x78, 0x11, 0x00, 0x00,
  0x70, 0x11, 0x00, 0x00, 0x38, 0x11, 0x00, 0x00, 0xf8, 0x10, 0x00, 0x00,
  0xd0, 0x10, 0x00, 0x00, 0xbc, 0x10, 0x00, 0x00, 0x3c, 0x08, 0x00, 0x00,
  0xf4, 0x03, 0x00, 0x00, 0xbc, 0x03, 0x00, 0x00, 0x1c, 0x02, 0x00, 0x00,
  0x04, 0x02, 0x00, 0x00, 0xf8, 0x00, 0x00, 0x00, 0xdc, 0x00, 0x00, 0x00,
  0xd4, 0x00, 0x00, 0x00, 0xcc, 0x00, 0x00, 0x00, 0xc4, 0x00, 0x00, 0x00,
  0xbc, 0x00, 0x00, 0x00, 0xb4, 0x00, 0x00, 0x00, 0xac, 0x00, 0x00, 0x00,
  0xa4, 0x00, 0x00, 0x00, 0x9c, 0x00, 0x00, 0x00, 0x94, 0x00, 0x00, 0x00,
  0x74, 0x00, 0x00, 0x00, 0x04, 0x00, 0x00, 0x00, 0x26, 0xef, 0xff, 0xff,
  0x04, 0x00, 0x00, 0x00, 0x60, 0x00, 0x00, 0x00, 0x10, 0x00, 0x00, 0x00,
  0x00, 0x00, 0x00, 0x00, 0x08, 0x00, 0x0e, 0x00, 0x08, 0x00, 0x04, 0x00,
  0x08, 0x00, 0x00, 0x00, 0x10, 0x00, 0x00, 0x00, 0x24, 0x00, 0x00, 0x00,
  0x00, 0x00, 0x06, 0x00, 0x08, 0x00, 0x04, 0x00, 0x06, 0x00, 0x00, 0x00,
  0x04, 0x00, 0x00, 0x00, 0x00, 0x00, 0x00, 0x00, 0x0c, 0x00, 0x18, 0x00,
  0x14, 0x00, 0x10, 0x00, 0x0c, 0x00, 0x04, 0x00, 0x0c, 0x00, 0x00, 0x00,
  0xdd, 0x21, 0xda, 0x54, 0x0c, 0xb5, 0xa7, 0x6c, 0x02, 0x00, 0x00, 0x00,
  0x02, 0x00, 0x00, 0x00, 0x04, 0x00, 0x00, 0x00, 0x06, 0x00, 0x00, 0x00,
  0x32, 0x2e, 0x32, 0x30, 0x2e, 0x30, 0x00, 0x00, 0x92, 0xef, 0xff, 0xff,
  0x04, 0x00, 0x00, 0x00, 0x10, 0x00, 0x00, 0x00, 0x31, 0x2e, 0x31, 0x34,
  0x2e, 0x30, 0x00, 0x00, 0x00, 0x00, 0x00, 0x00, 0x00, 0x00, 0x00, 0x00,
  0x20, 0xe3, 0xff, 0xff, 0x24, 0xe3, 0xff, 0xff, 0x28, 0xe3, 0xff, 0xff,
  0x2c, 0xe3, 0xff, 0xff, 0x30, 0xe3, 0xff, 0xff, 0x34, 0xe3, 0xff, 0xff,
  0x38, 0xe3, 0xff, 0xff, 0x3c, 0xe3, 0xff, 0xff, 0x40, 0xe3, 0xff, 0xff,
  0xd2, 0xef, 0xff, 0xff, 0x04, 0x00, 0x00, 0x00, 0x0c, 0x00, 0x00, 0x00,
  0x20, 0x7f, 0x49, 0x3e, 0xbc, 0x38, 0x87, 0x3f, 0x06, 0x14, 0x01, 0x3e,
  0xea, 0xef, 0xff, 0xff, 0x04, 0x00, 0x00, 0x00, 0xfc, 0x00, 0x00, 0x00,
  0xf8, 0x45, 0x25, 0xbf, 0xc1, 0xd7, 0xb8, 0x3d, 0x19, 0xab, 0xb5, 0xbe,
  0xfe, 0xa1, 0x19, 0xbf, 0x3e, 0xef, 0x37, 0x3e, 0x99, 0x15, 0x91, 0x3d,
  0x4c, 0x06, 0x07, 0xbf, 0xa1, 0xdf, 0xa0, 0x3c, 0xbe, 0xc9, 0xa3, 0x3e,
  0xb7, 0x35, 0x4a, 0x3e, 0xa8, 0x72, 0x12, 0xbf, 0x55, 0xc6, 0x17, 0x3e,
  0x95, 0x8e, 0x34, 0x3e, 0xa7, 0xe1, 0xe6, 0xbd, 0xb2, 0x01, 0xae, 0x3d,
  0x14, 0xfc, 0x3d, 0x3d, 0x99, 0x15, 0x57, 0xbd, 0x25, 0xdc, 0x08, 0x3e,
  0x22, 0x63, 0x0d, 0x3f, 0x37, 0xe0, 0x33, 0x3e, 0x3e, 0x2e, 0x70, 0x3e,
  0x35, 0x83, 0x03, 0x3e, 0x0c, 0x04, 0xbc, 0x3e, 0x30, 0x1b, 0x11, 0xbf,
  0xe5, 0x13, 0xe4, 0x3e, 0x41, 0x98, 0x41, 0xbd, 0xfd, 0x16, 0xe0, 0xbe,
  0x57, 0xf8, 0x8d, 0x3e, 0x9d, 0x86, 0x26, 0x3e, 0xd4, 0xfa, 0x89, 0xbe,
  0x29, 0x9b, 0xc4, 0x3e, 0xb3, 0x60, 0xdf, 0x3d, 0x50, 0xa5, 0x3a, 0x3e,
  0x4a, 0x68, 0x1e, 0x3e, 0xe5, 0xdb, 0x7a, 0xbd, 0x04, 0x05, 0x49, 0xbd,
  0x63, 0x14, 0x06, 0xbf, 0xc8, 0xdb, 0x26, 0x3e, 0x09, 0x1e, 0x5b, 0x3e,
  0x8b, 0x48, 0x3e, 0xbf, 0xb6, 0xbd, 0x17, 0xbf, 0xac, 0xaa, 0x23, 0xbe,
  0x49, 0x8d, 0xee, 0x3d, 0x78, 0x90, 0x8c, 0x3e, 0x67, 0x80, 0x3a, 0x3e,
  0xee, 0x93, 0x0a, 0x3c, 0x87, 0x13, 0xb6, 0x3e, 0x5e, 0x22, 0xc0, 0x3e,
  0x69, 0xec, 0x18, 0x3e, 0x73, 0x16, 0x0e, 0x3f, 0x35, 0xbc, 0x36, 0x3f,
  0x2a, 0xdd, 0x1b, 0x3e, 0x3a, 0xa5, 0x94, 0x3e, 0x8f, 0xc2, 0x1f, 0x3f,
  0x82, 0xf2, 0x6e, 0x3e, 0x3b, 0xeb, 0xb2, 0x3e, 0xa2, 0xce, 0x9f, 0x3e,
  0xc7, 0x5d, 0x48, 0xbd, 0x41, 0x8c, 0xcf, 0x3e, 0x19, 0xd5, 0x0a, 0x3f,
  0x5a, 0xfb, 0x4a, 0x3d, 0xc0, 0x0b, 0x56, 0x3e, 0x4b, 0xd1, 0xa2, 0xbd,
  0xf2, 0xf0, 0xff, 0xff, 0x04, 0x00, 0x00, 0x00, 0x08, 0x00, 0x00, 0x00,
  0x01, 0x00, 0x00, 0x00, 0x02, 0x00, 0x00, 0x00, 0x06, 0xf1, 0xff, 0xff,
  0x04, 0x00, 0x00, 0x00, 0x90, 0x01, 0x00, 0x00, 0x65, 0xa8, 0xc3, 0x3d,
  0xe5, 0x7c, 0x29, 0xbf, 0x91, 0x2e, 0x6f, 0xbe, 0x01, 0x91, 0x44, 0xbf,
  0x2a, 0x33, 0x47, 0xbe, 0x1e, 0x47, 0x7c, 0xbe, 0x3d, 0x6e, 0x8f, 0xbc,
  0xbf, 0xff, 0x1f, 0x3e, 0xb9, 0x80, 0x95, 0xbe, 0xb1, 0xf8, 0xac, 0x3c,
  0xf4, 0x07, 0x59, 0xbf, 0xb8, 0x47, 0xda, 0xbe, 0x20, 0x97, 0x78, 0xbe,
  0x63, 0xa6, 0x7b, 0xbb, 0x9f, 0x06, 0xff, 0x3d, 0x80, 0x7c, 0xb5, 0x3e,
  0xcb, 0x06, 0xb4, 0x3c, 0x85, 0x11, 0x22, 0x3e, 0xdf, 0x4b, 0x3a, 0xbe,
  0xb5, 0x42, 0x8d, 0xbd, 0x32, 0x93, 0x5b, 0xbf, 0x57, 0xd0, 0x97, 0xbe,
  0x75, 0x8c, 0x2a, 0x3e, 0xd6, 0x04, 0xa3, 0x3d, 0xd0, 0x7c, 0x16, 0xbf,
  0x98, 0x80, 0x80, 0x3d, 0x87, 0xf9, 0x34, 0x3e, 0x9a, 0xeb, 0x08, 0xbf,
  0xa8, 0xf4, 0x29, 0xbf, 0x6b, 0xff, 0x24, 0xbf, 0x6d, 0x33, 0xfa, 0x3e,
  0x01, 0xbc, 0x04, 0xbf, 0xf9, 0x36, 0x63, 0x3f, 0x3f, 0x4c, 0xd2, 0x3e,
  0xdd, 0x87, 0x3b, 0x3f, 0xb5, 0x82, 0x1b, 0xbf, 0x41, 0x72, 0x1b, 0x3e,
  0xf0, 0xfe, 0x13, 0x3f, 0xe7, 0xfa, 0x05, 0xc0, 0xb2, 0x27, 0xda, 0x3e,
  0x71, 0x4c, 0x68, 0x3e, 0xf9, 0x50, 0xb9, 0xbe, 0x89, 0x57, 0x39, 0x3f,
  0x8a, 0x9b, 0xe0, 0x3d, 0xea, 0xe8, 0x7c, 0x3e, 0x57, 0x10, 0xe8, 0xbe,
  0x0f, 0x7a, 0xd2, 0x3e, 0xd2, 0xda, 0x64, 0x3e, 0xa2, 0x31, 0xe3, 0xbe,
  0xc8, 0xe1, 0xd7, 0x3d, 0x30, 0x56, 0xcb, 0xbe, 0xa6, 0x02, 0x1c, 0xbf,
  0x3a, 0xfa, 0x43, 0xbf, 0x6b, 0x45, 0x36, 0xbe, 0x0e, 0x60, 0x18, 0xbf,
  0xec, 0xe8, 0xb4, 0x3e, 0xe9, 0xa9, 0x76, 0x3d, 0x1f, 0x27, 0x32, 0x3e,
  0xf8, 0xdf, 0x8a, 0xbf, 0x2e, 0xfc, 0x0c, 0xbf, 0x49, 0x28, 0xfc, 0xbe,
  0x21, 0xaf, 0xe0, 0x3c, 0xfe, 0x72, 0xf5, 0xbe, 0xa6, 0x89, 0xeb, 0xbe,
  0x5c, 0x9c, 0x4b, 0x3d, 0xe6, 0xa1, 0x68, 0xbe, 0xbc, 0x61, 0x82, 0x3d,
  0x84, 0x47, 0xeb, 0xbe, 0xce, 0x88, 0x95, 0xbe, 0x87, 0xf3, 0x98, 0x3e,
  0xbf, 0x95, 0x1c, 0x3f, 0xa7, 0x60, 0x19, 0x3f, 0x4c, 0x7f, 0x31, 0xbf,
  0xd5, 0x54, 0x82, 0x3b, 0xf3, 0x05, 0x9c, 0xbf, 0xeb, 0xdf, 0x81, 0x3f,
  0x07, 0xfe, 0x01, 0xbf, 0x3e, 0x53, 0x8b, 0xbe, 0x08, 0x91, 0x05, 0x40,
  0xdd, 0x17, 0x09, 0xbf, 0xc9, 0x68, 0x77, 0xbe, 0x63, 0x73, 0xb1, 0xbe,
  0x3e, 0xea, 0x8b, 0xbe, 0x26, 0x50, 0x35, 0xbe, 0x10, 0x9d, 0x02, 0x3e,
  0x4f, 0xf6, 0x12, 0x3f, 0x12, 0xc8, 0x9b, 0xbe, 0x46, 0xa2, 0xa4, 0x3d,
  0xe8, 0x65, 0x37, 0xbf, 0x03, 0xc8, 0x68, 0x3d, 0x44, 0xae, 0xe6, 0x3e,
  0xec, 0x76, 0x68, 0xbe, 0x4c, 0xbb, 0x8c, 0x3f, 0x79, 0x76, 0x27, 0xbd,
  0x87, 0x57, 0x1c, 0x3f, 0x2f, 0xc6, 0x8b, 0xbd, 0x92, 0xf1, 0xd2, 0xbd,
  0xd6, 0x45, 0xc1, 0xbd, 0x7f, 0x36, 0xb7, 0xbf, 0xca, 0xa2, 0x50, 0x3e,
  0xa2, 0xf2, 0xff, 0xff, 0x04, 0x00, 0x00, 0x00, 0x28, 0x00, 0x00, 0x00,
  0xaa, 0xca, 0x31, 0x3e, 0xb1, 0x08, 0x11, 0xbf, 0x79, 0x50, 0x69, 0x3e,
  0x36, 0x35, 0x23, 0xbf, 0xd4, 0x2a, 0xbd, 0xbe, 0x7a, 0xcf, 0x05, 0x3f,
  0xfe, 0x92, 0x2c, 0x3f, 0xbb, 0x22, 0x68, 0x3f, 0xbd, 0x1c, 0xdf, 0xbe,
  0xc0, 0x1b, 0x1e, 0xbf, 0xd6, 0xf2, 0xff, 0xff, 0x04, 0x00, 0x00, 0x00,
  0x38, 0x04, 0x00, 0x00, 0x23, 0x51, 0xb6, 0xbc, 0x66, 0xc8, 0x03, 0x3e,
  0xbb, 0x80, 0xd6, 0xbe, 0x09, 0xe6, 0xb1, 0xbe, 0x44, 0x10, 0x1a, 0x3f,
  0x93, 0x04, 0xef, 0xbd, 0x36, 0x23, 0x6a, 0x3d, 0x27, 0x8a, 0xd1, 0x3e,
  0x17, 0x39, 0x89, 0xbd, 0x11, 0xcc, 0x47, 0xbe, 0xcf, 0x53, 0xc1, 0x3d,
  0x1e, 0xd6, 0x27, 0xbe, 0x1f, 0xc3, 0xfd, 0x3d, 0xe4, 0xef, 0x4c, 0x3e,
  0xb0, 0x5f, 0x86, 0xbe, 0x39, 0xe0, 0xf0, 0x3e, 0x3c, 0x3c, 0x25, 0xbf,
  0xf8, 0xb5, 0xa0, 0xbe, 0xda, 0xeb, 0x16, 0xbe, 0x58, 0x02, 0x62, 0xbd,
  0xa8, 0x62, 0xfe, 0xbc, 0x3d, 0x52, 0x84, 0x3e, 0x9a, 0xd5, 0x20, 0x3a,
  0x74, 0xdc, 0x95, 0xbd, 0x4d, 0x07, 0x84, 0x3d, 0xcf, 0xfd, 0x92, 0xbf,
  0xde, 0xc4, 0x7e, 0xbe, 0xa5, 0xb0, 0x25, 0x3f, 0x9b, 0x51, 0x69, 0xbe,
  0x67, 0x4b, 0x17, 0x3e, 0x80, 0x2c, 0x6f, 0x3e, 0xf1, 0xbf, 0x28, 0xbe,
  0xd3, 0x43, 0x9c, 0x3d, 0x37, 0x21, 0xec, 0x3e, 0x68, 0x11, 0x5b, 0xbf,
  0x70, 0x11, 0x24, 0x3e, 0xbc, 0xc5, 0xae, 0x3e, 0x40, 0x33, 0x4b, 0xbf,
  0x03, 0xfc, 0xde, 0x3e, 0xc7, 0x37, 0xdb, 0x3e, 0x4e, 0x2b, 0x8a, 0x3d,
  0x0f, 0x9a, 0x09, 0x3f, 0xb3, 0x80, 0xe2, 0x3e, 0xe8, 0x51, 0xfc, 0xbd,
  0x3a, 0x1c, 0xaa, 0x3e, 0xa1, 0x46, 0xa4, 0x3d, 0x59, 0x5c, 0x8a, 0xbe,
  0x38, 0x2c, 0x7e, 0xbd, 0x5a, 0x2c, 0x6b, 0xbe, 0x8a, 0xdc, 0x96, 0xbd,
  0x8b, 0x25, 0x3e, 0xbf, 0x84, 0xc8, 0xcd, 0x3d, 0xa8, 0xd0, 0xb2, 0x3e,
  0xf5, 0x46, 0xba, 0xbd, 0xc3, 0x26, 0xab, 0x3d, 0xa1, 0x55, 0x98, 0xbe,
  0x70, 0x22, 0xca, 0x3d, 0x14, 0x09, 0x9b, 0xbe, 0xf3, 0x76, 0xb0, 0x3e,
  0x87, 0x32, 0x38, 0xbf, 0x99, 0xb4, 0x55, 0x3e, 0x82, 0xa6, 0xe7, 0x3e,
  0x3b, 0xb3, 0x8a, 0xbf, 0x66, 0x32, 0x34, 0x3e, 0x73, 0xcd, 0x45, 0xbe,
  0xaa, 0x51, 0x54, 0xbd, 0xbb, 0xcc, 0xe2, 0xbe, 0x43, 0x2c, 0xb4, 0x3e,
  0xda, 0xba, 0xbb, 0xbe, 0x37, 0x24, 0xf0, 0x3e, 0x71, 0x24, 0xeb, 0x3e,
  0x4e, 0xb3, 0x8f, 0xbf, 0x9c, 0x31, 0x8f, 0xbd, 0xca, 0xdd, 0x77, 0xbe,
  0xf0, 0x05, 0xee, 0x3d, 0x3f, 0x12, 0x07, 0xbe, 0x73, 0xb4, 0xcb, 0x3e,
  0x6b, 0xe4, 0x36, 0xbd, 0x60, 0x3b, 0x95, 0x3c, 0xc2, 0xf5, 0xe9, 0x3e,
  0x55, 0x1c, 0x40, 0xbf, 0xc3, 0x88, 0x10, 0xbf, 0x94, 0x18, 0x4f, 0x3e,
  0xe4, 0xc9, 0x5f, 0x3e, 0x79, 0x9e, 0x3c, 0x3e, 0x6f, 0x33, 0x22, 0x3f,
  0x20, 0x6d, 0x01, 0x3f, 0xce, 0x56, 0x14, 0xbe, 0xfe, 0x71, 0x9b, 0x3e,
  0x82, 0xb7, 0x98, 0xbe, 0xdf, 0xc0, 0x0a, 0x3e, 0x1b, 0xa9, 0x03, 0xbf,
  0xe6, 0x18, 0xc7, 0xbe, 0x47, 0xfc, 0xb5, 0xbf, 0xbc, 0xf6, 0xb9, 0x3e,
  0x75, 0xf2, 0xba, 0x3e, 0xde, 0xa7, 0xc7, 0x3e, 0x49, 0x80, 0xa9, 0x3e,
  0x11, 0x71, 0x2c, 0x3e, 0x0d, 0xae, 0x43, 0xbe, 0xd6, 0x3b, 0x28, 0xbf,
  0x4e, 0x09, 0x8c, 0x3c, 0x0c, 0xc9, 0x6b, 0x3d, 0x50, 0x40, 0x1f, 0x3e,
  0xca, 0x89, 0x2d, 0xbe, 0x77, 0xa1, 0x3f, 0x3f, 0x73, 0xd6, 0xba, 0x3d,
  0x36, 0x46, 0x9a, 0x3e, 0x11, 0x86, 0x3e, 0x3d, 0x71, 0xb9, 0x38, 0xbf,
  0xf0, 0xb2, 0xce, 0xbd, 0x68, 0xb2, 0x13, 0xbe, 0x1c, 0x09, 0x16, 0xbe,
  0xd8, 0xec, 0x33, 0xbe, 0x1c, 0xaa, 0xc2, 0x3e, 0x2b, 0x34, 0xd8, 0xbe,
  0xb3, 0xf0, 0xa8, 0x3e, 0x52, 0xd1, 0xf1, 0x3d, 0xcb, 0x82, 0xeb, 0xbe,
  0x85, 0x66, 0xe7, 0x3d, 0x58, 0xe1, 0xcc, 0x3c, 0x3f, 0x6e, 0x49, 0xbe,
  0xe0, 0x2e, 0x57, 0x3c, 0x93, 0xc9, 0x4a, 0x3e, 0x22, 0xc4, 0x1e, 0xbf,
  0x5c, 0x10, 0x02, 0x3f, 0xe4, 0x78, 0xa2, 0x3d, 0x35, 0x99, 0x87, 0xbe,
  0x4d, 0x12, 0x10, 0x3e, 0x6c, 0xbb, 0x9e, 0xbd, 0xd8, 0x1c, 0x47, 0xbe,
  0x28, 0x6c, 0x0e, 0xbe, 0x01, 0x62, 0x45, 0x3c, 0x3f, 0x4c, 0x91, 0x3d,
  0x1f, 0xdc, 0x16, 0x3c, 0xb5, 0xab, 0xc4, 0x3d, 0xba, 0x38, 0x13, 0x3e,
  0x2d, 0xaa, 0x44, 0xbd, 0x67, 0x5c, 0x82, 0x3e, 0xbf, 0x70, 0x4c, 0xbf,
  0x4d, 0x81, 0x00, 0xbf, 0x64, 0x41, 0x79, 0xbf, 0x62, 0x10, 0x20, 0x3e,
  0x3e, 0x4d, 0x2a, 0xbf, 0xa6, 0x8a, 0xde, 0xbe, 0x51, 0xac, 0x9a, 0x3d,
  0xf0, 0x2c, 0x07, 0xbe, 0x7c, 0xe0, 0xa9, 0x3b, 0xf1, 0x84, 0x50, 0xbf,
  0xfe, 0x20, 0x91, 0xbe, 0x37, 0xb0, 0x86, 0xbd, 0x39, 0x79, 0x61, 0xbc,
  0x77, 0xd0, 0xfc, 0xbe, 0x7d, 0x88, 0x58, 0xbe, 0x11, 0x05, 0x6d, 0xbe,
  0x17, 0x5a, 0x3b, 0xbc, 0x8f, 0x18, 0x3f, 0x3c, 0xb7, 0x0e, 0x2a, 0xbf,
  0x86, 0xb6, 0x07, 0x3d, 0x72, 0xbe, 0x76, 0x3d, 0xb9, 0x5e, 0xa2, 0xbe,
  0xfe, 0xdf, 0xee, 0x3d, 0x67, 0xba, 0xd9, 0xbd, 0xed, 0xd8, 0x78, 0xbe,
  0x2e, 0x72, 0x9f, 0x3e, 0x5f, 0xda, 0x0b, 0x3e, 0xe6, 0x25, 0x1c, 0xbe,
  0x61, 0x04, 0xb5, 0x3d, 0x77, 0xcb, 0x1f, 0x3f, 0x12, 0xdb, 0xf8, 0xbe,
  0x24, 0x45, 0x77, 0x3e, 0x33, 0x7e, 0xc2, 0x3e, 0xfb, 0xdc, 0x3c, 0xbf,
  0xf8, 0xe9, 0xae, 0x3e, 0xc4, 0x55, 0x5d, 0x3e, 0x5d, 0x3a, 0x7d, 0xbd,
  0x2c, 0x6d, 0x07, 0x3f, 0x55, 0xc0, 0xac, 0xbe, 0x51, 0xb4, 0xa3, 0xbe,
  0x1c, 0x93, 0x1a, 0x3f, 0x41, 0x0b, 0x36, 0xbf, 0xf6, 0xd3, 0xa0, 0xbe,
  0x68, 0xca, 0xb7, 0xbe, 0x0c, 0xfd, 0x4c, 0xbf, 0x37, 0x12, 0x00, 0xbe,
  0xc6, 0x71, 0x10, 0xbf, 0xdc, 0xff, 0x3b, 0x3e, 0xac, 0x56, 0xe7, 0xbe,
  0x8a, 0xa4, 0xe0, 0xbe, 0xbb, 0x15, 0x9a, 0xbd, 0xec, 0x3c, 0xb0, 0xbe,
  0x18, 0x70, 0xba, 0xbe, 0xb9, 0x86, 0x37, 0xbf, 0x5b, 0xd3, 0x91, 0x3e,
  0x64, 0x85, 0xac, 0xbe, 0xe3, 0x98, 0x19, 0x3e, 0x20, 0xbe, 0x93, 0x3c,
  0xb4, 0x06, 0x30, 0xbf, 0xac, 0x9d, 0x7b, 0x3d, 0x72, 0x3c, 0xfd, 0xbe,
  0xca, 0x25, 0x98, 0x3c, 0xb6, 0x2a, 0x16, 0xbf, 0x3f, 0x16, 0x72, 0xbd,
  0x42, 0x72, 0xe9, 0x3d, 0x08, 0x9c, 0x99, 0x3b, 0xdd, 0x0c, 0x93, 0x3e,
  0x5f, 0x53, 0x47, 0xbe, 0x9c, 0x29, 0x7a, 0xbe, 0x2d, 0x9d, 0x17, 0x3e,
  0xaf, 0x67, 0xa1, 0x3e, 0x05, 0xfc, 0x15, 0xbf, 0xfd, 0xa1, 0x28, 0xbf,
  0x8b, 0x1e, 0xcf, 0x3d, 0xe7, 0x32, 0x17, 0xbf, 0x75, 0xbe, 0x96, 0x3e,
  0x72, 0xcb, 0x56, 0x3d, 0x40, 0x81, 0xdf, 0xbd, 0xbb, 0x72, 0x41, 0x3e,
  0x1b, 0xe4, 0x04, 0x3f, 0x1f, 0x1a, 0x8e, 0xbe, 0x7b, 0xef, 0x5f, 0xbf,
  0x40, 0x42, 0x0a, 0x3f, 0xf4, 0xfe, 0x96, 0xbe, 0xcd, 0x35, 0x3d, 0xbd,
  0xb3, 0xc6, 0x6e, 0x3e, 0xd8, 0x43, 0x12, 0xbf, 0xbd, 0xb3, 0x87, 0xbf,
  0xfb, 0x23, 0x88, 0xbe, 0x94, 0x74, 0x37, 0xbf, 0x19, 0x43, 0x97, 0xbf,
  0xf9, 0x83, 0x74, 0xbe, 0xd7, 0xbc, 0x7b, 0xbe, 0xf6, 0x14, 0x84, 0x3e,
  0x0f, 0x89, 0xd1, 0xbe, 0x93, 0xfe, 0x8c, 0xbf, 0xfa, 0x50, 0x31, 0xbf,
  0xf5, 0xe5, 0x24, 0xbd, 0xed, 0x49, 0x46, 0xbf, 0xde, 0xe5, 0x56, 0xbf,
  0x28, 0x34, 0x85, 0xbe, 0x52, 0x67, 0xd0, 0x3e, 0x7b, 0xb5, 0xe9, 0x3e,
  0xfa, 0xde, 0x11, 0x3d, 0xc6, 0x97, 0x4c, 0xbf, 0xd7, 0xf7, 0xc1, 0xbd,
  0x9d, 0xa0, 0x42, 0xbd, 0x75, 0xab, 0xd1, 0xbf, 0x9e, 0x22, 0x42, 0x3e,
  0x2e, 0x61, 0x94, 0x3d, 0xd1, 0x9d, 0xd7, 0x3e, 0x98, 0x26, 0x70, 0x3e,
  0x33, 0xdd, 0xb3, 0x3d, 0x48, 0xde, 0x4c, 0xbf, 0xe8, 0x77, 0xf4, 0x3d,
  0xba, 0x55, 0x7c, 0x3e, 0x93, 0x0b, 0x2b, 0xc0, 0x64, 0x46, 0xf2, 0x3d,
  0x7f, 0x46, 0x95, 0xbe, 0x7e, 0x88, 0x68, 0x3e, 0x70, 0x6f, 0xf0, 0xbd,
  0x9c, 0x62, 0x9a, 0x3e, 0xae, 0xfc, 0x8c, 0xbf, 0x2a, 0x39, 0x94, 0x3e,
  0x46, 0x37, 0xeb, 0x3e, 0xc5, 0xd5, 0x40, 0xc0, 0x6f, 0xc0, 0x03, 0xbf,
  0x43, 0xb3, 0xae, 0x3d, 0x33, 0x85, 0xaa, 0x3e, 0x40, 0xba, 0x8a, 0xbe,
  0x44, 0xa9, 0x46, 0xbd, 0x1a, 0xf7, 0xff, 0xff, 0x04, 0x00, 0x00, 0x00,
  0x70, 0x08, 0x00, 0x00, 0xf5, 0x02, 0xb2, 0xbe, 0xf1, 0x32, 0x93, 0xbe,
  0x8d, 0x3e, 0x16, 0x3d, 0x91, 0x9e, 0x06, 0xbe, 0x03, 0xce, 0x63, 0xbe,
  0x69, 0x8a, 0xd3, 0xbf, 0x12, 0xec, 0x10, 0xbd, 0x9d, 0xfc, 0x8c, 0xbd,
  0xf6, 0xbb, 0x02, 0x3d, 0x43, 0xbe, 0x12, 0x3e, 0xac, 0x63, 0x2b, 0xbc,
  0x41, 0xea, 0x4b, 0x3d, 0x6e, 0x25, 0xfd, 0x3e, 0x2d, 0xd6, 0xc7, 0xbe,
  0x14, 0x67, 0x17, 0x3f, 0xf4, 0x24, 0x24, 0x3e, 0xe4, 0x29, 0x00, 0xbf,
  0x01, 0x05, 0x20, 0xbf, 0x47, 0xe4, 0x80, 0xbf, 0xc9, 0xc6, 0x15, 0x3d,
  0x7d, 0x1b, 0x55, 0x3e, 0x52, 0xfd, 0x35, 0xbe, 0xc4, 0xf4, 0x3c, 0xbf,
  0x09, 0x2a, 0xba, 0xbf, 0xd7, 0xe8, 0xfa, 0xbd, 0x5b, 0x9e, 0x4f, 0xbe,
  0x45, 0xb0, 0xac, 0xbd, 0x65, 0x35, 0x39, 0x3c, 0x4f, 0x7c, 0xd4, 0x3d,
  0xdf, 0x97, 0x15, 0x3e, 0x9b, 0x41, 0x17, 0x3e, 0xb1, 0x49, 0x25, 0xbf,
  0xfb, 0xd8, 0xd4, 0x3e, 0xb0, 0xa6, 0x8c, 0x3d, 0xe6, 0xa7, 0x3f, 0xbf,
  0xd9, 0xd4, 0xab, 0xbe, 0x94, 0xb3, 0x7a, 0xbf, 0x89, 0x7c, 0xd2, 0xbe,
  0xf4, 0x58, 0x1b, 0xbe, 0x4d, 0x2b, 0xeb, 0xbe, 0x21, 0x44, 0x49, 0xbf,
  0x40, 0x66, 0xb7, 0xbf, 0xda, 0xdc, 0x76, 0xbe, 0xf7, 0x07, 0x57, 0x3d,
  0x27, 0x44, 0x1a, 0x3c, 0xc7, 0x35, 0x1f, 0x3e, 0x3b, 0xbe, 0x4c, 0x3d,
  0xaa, 0x3a, 0xb4, 0x3e, 0x40, 0xb7, 0xb1, 0x3d, 0xd7, 0x6a, 0x30, 0xbf,
  0x10, 0xde, 0x2d, 0x3f, 0x85, 0xa2, 0x28, 0x3e, 0x56, 0xb0, 0x99, 0xbf,
  0xa5, 0xdd, 0x52, 0xbf, 0xf8, 0x9d, 0x85, 0xbe, 0x3e, 0x4e, 0xa3, 0x3c,
  0x80, 0x35, 0x98, 0x3d, 0xcf, 0xb9, 0x4e, 0x3e, 0xc8, 0x2d, 0x01, 0xbf,
  0x1f, 0xd4, 0x25, 0xbf, 0x07, 0x6d, 0xb0, 0xbf, 0x2e, 0x45, 0xe7, 0x3d,
  0xbd, 0xb6, 0xb5, 0x3d, 0x5e, 0x54, 0x18, 0xbf, 0x37, 0xc9, 0x4a, 0x3f,
  0xac, 0x49, 0x7d, 0x3f, 0x9e, 0x3e, 0x85, 0x3e, 0x0f, 0x83, 0x55, 0x3e,
  0x47, 0xb6, 0x15, 0x3e, 0xe8, 0x9e, 0x87, 0xbc, 0xdd, 0x46, 0xb9, 0xbe,
  0x93, 0x04, 0x1c, 0xbf, 0x7b, 0xb3, 0x22, 0x3e, 0x8e, 0xc4, 0x43, 0x3e,
  0x2d, 0x69, 0x11, 0x3e, 0xe7, 0x07, 0x5e, 0x3e, 0x5d, 0xe8, 0xd8, 0xbe,
  0x9f, 0xb1, 0x67, 0xbe, 0x27, 0x7b, 0x93, 0xbf, 0xa1, 0x66, 0x16, 0xbe,
  0xe3, 0x0a, 0x94, 0xbe, 0x80, 0xb5, 0xc1, 0xbe, 0xdc, 0x2a, 0x77, 0xbe,
  0x49, 0x3c, 0x18, 0x3f, 0x61, 0xca, 0x50, 0x3e, 0xdd, 0xde, 0x61, 0x3e,
  0x57, 0xec, 0x74, 0x3e, 0x88, 0x29, 0x12, 0x3f, 0x2c, 0x3b, 0x99, 0x3e,
  0x6b, 0x3a, 0xab, 0xbe, 0x4c, 0x34, 0xe7, 0x3d, 0x83, 0x21, 0x1d, 0x3e,
  0xc5, 0xb5, 0x0b, 0xbc, 0xa8, 0xf2, 0x02, 0x3e, 0x3d, 0x0c, 0x26, 0xbf,
  0x38, 0x0d, 0xc6, 0xbb, 0xb4, 0x11, 0xb6, 0xbf, 0x3d, 0x38, 0x43, 0xbf,
  0xce, 0x3e, 0xce, 0xbe, 0xf1, 0x32, 0xba, 0xbd, 0x46, 0x26, 0x93, 0xbf,
  0xb3, 0xa8, 0xae, 0x3e, 0x63, 0x87, 0x15, 0x3e, 0x23, 0x28, 0xe7, 0x3e,
  0x23, 0x6c, 0x22, 0x3e, 0xc3, 0xff, 0x4b, 0x3f, 0x86, 0x54, 0xd9, 0x3e,
  0xbb, 0x71, 0x8c, 0x3e, 0x9b, 0xe3, 0xff, 0xbe, 0xfd, 0x6a, 0x70, 0xbf,
  0x3e, 0x21, 0xce, 0x3e, 0x91, 0x15, 0xda, 0x3d, 0x42, 0x7c, 0xc1, 0xbe,
  0xbe, 0x36, 0xf2, 0x3e, 0x25, 0xc3, 0x1b, 0xbe, 0x98, 0x78, 0x53, 0x3e,
  0x8a, 0x85, 0x13, 0xbf, 0x1a, 0x20, 0x33, 0x3e, 0x76, 0x8b, 0xf3, 0x3b,
  0xc2, 0xfb, 0xa2, 0xbf, 0xa9, 0x10, 0xe9, 0x3e, 0x7d, 0xad, 0x14, 0x3f,
  0x40, 0x4d, 0x76, 0xbe, 0xc7, 0x57, 0x70, 0x3e, 0x03, 0xda, 0xde, 0x3e,
  0x5b, 0x5e, 0xe1, 0x3e, 0x48, 0x2f, 0x57, 0xbf, 0xaa, 0x18, 0x6f, 0xbd,
  0x87, 0x4e, 0x9f, 0xbd, 0x63, 0x6d, 0xa7, 0xbe, 0x6a, 0x89, 0x4f, 0xbe,
  0xc8, 0x4e, 0xda, 0x3e, 0x1e, 0x4c, 0x73, 0xbc, 0xd8, 0x3b, 0xb3, 0xbe,
  0x32, 0x70, 0xcf, 0xbe, 0x22, 0x87, 0xe2, 0xbd, 0xba, 0x90, 0x9c, 0x3d,
  0x31, 0x42, 0x24, 0xbf, 0x54, 0xb4, 0x0b, 0x3f, 0x56, 0x05, 0x08, 0x3b,
  0x77, 0xc2, 0x4f, 0xbe, 0xe3, 0x8c, 0x9c, 0x3e, 0x54, 0xd8, 0x6b, 0x3d,
  0xa0, 0x12, 0xd3, 0x3e, 0xaf, 0x42, 0xb1, 0xbe, 0x25, 0xf2, 0x26, 0x3f,
  0x0c, 0x80, 0x55, 0xbe, 0xc3, 0x84, 0x97, 0xbd, 0x3f, 0x97, 0x77, 0xbe,
  0x11, 0xf8, 0xa1, 0xbd, 0xcb, 0x0b, 0x87, 0x3e, 0x7e, 0x7c, 0x03, 0xbf,
  0xe0, 0x30, 0x9a, 0x3d, 0xa3, 0x0a, 0x91, 0xbe, 0x1d, 0x9b, 0xaf, 0xbd,
  0xa2, 0x85, 0x5c, 0xbf, 0x7d, 0x18, 0x8c, 0x3d, 0x1b, 0x51, 0x82, 0xbe,
  0xbe, 0xb9, 0x9e, 0x3e, 0x2c, 0xed, 0x34, 0x3d, 0x72, 0xa3, 0xc9, 0x3e,
  0x2e, 0xa6, 0xa0, 0x3f, 0xb5, 0x54, 0xbc, 0xbd, 0xa0, 0xc8, 0xdb, 0xbe,
  0x9c, 0xcd, 0x36, 0xbd, 0xb9, 0x44, 0x22, 0x3e, 0xfb, 0xc0, 0xcd, 0xbe,
  0x16, 0x03, 0x30, 0xbf, 0x94, 0x46, 0x1a, 0xbe, 0x1a, 0x40, 0x1f, 0x3d,
  0xd6, 0xa1, 0x90, 0xbe, 0xd8, 0xd4, 0x42, 0xbe, 0x8c, 0x6f, 0x6e, 0x3e,
  0x69, 0x08, 0xdf, 0x3e, 0x94, 0xcd, 0x6b, 0x3e, 0xd3, 0xb0, 0xdb, 0x3e,
  0x23, 0x19, 0xb0, 0xbe, 0x01, 0xa1, 0xaf, 0x3e, 0x31, 0x8b, 0xdf, 0x3e,
  0x9f, 0xcd, 0x01, 0xbf, 0xa2, 0x4d, 0x25, 0xbd, 0xa7, 0x96, 0x25, 0xbf,
  0x66, 0xfd, 0xe9, 0xbd, 0xd4, 0x1d, 0x47, 0xbd, 0x33, 0xda, 0xe7, 0xbd,
  0xc6, 0xfd, 0x92, 0xbe, 0x3d, 0x90, 0x16, 0xbe, 0x42, 0xfa, 0xad, 0x3e,
  0x89, 0x37, 0xda, 0xbd, 0xc9, 0xb4, 0x25, 0x3d, 0x0b, 0xfe, 0x6d, 0x3d,
  0x72, 0x72, 0xf8, 0x3e, 0x03, 0xb7, 0x38, 0x3e, 0x6d, 0x41, 0x98, 0x3e,
  0xc3, 0xa9, 0xc5, 0xbd, 0x2a, 0x44, 0x54, 0x3d, 0x68, 0x67, 0x0a, 0x3e,
  0xd8, 0xbe, 0x3a, 0xbf, 0x3a, 0xd5, 0xa2, 0x3c, 0x4e, 0xf9, 0x22, 0xbf,
  0xfa, 0xf8, 0xa4, 0xbe, 0x8a, 0x4d, 0x32, 0xbe, 0xc2, 0x72, 0x22, 0x3e,
  0x01, 0xa3, 0xe5, 0xbf, 0xf8, 0x9b, 0xd8, 0x3c, 0x3d, 0x74, 0xf6, 0x3d,
  0xe6, 0xcb, 0xb8, 0x3d, 0xbe, 0xc9, 0xc8, 0x3d, 0x3b, 0xff, 0x5d, 0x3e,
  0x2a, 0xb7, 0x53, 0x3e, 0x69, 0x29, 0x11, 0x3e, 0xf0, 0x12, 0x9d, 0xbe,
  0xd5, 0xf7, 0x79, 0x3e, 0x8e, 0x15, 0x3a, 0x3f, 0x8c, 0x98, 0x89, 0xbe,
  0x2d, 0x77, 0x5b, 0xbf, 0x87, 0x83, 0xc9, 0xbd, 0x87, 0xea, 0x71, 0x3d,
  0x04, 0xad, 0x02, 0x3f, 0x9e, 0xf2, 0x05, 0x3e, 0xa5, 0x93, 0x83, 0xbf,
  0xd1, 0xd6, 0xf8, 0x3e, 0xd9, 0x38, 0xdf, 0xbd, 0xe4, 0x47, 0x82, 0x3d,
  0x07, 0x17, 0xc5, 0xbe, 0x9c, 0xdb, 0x2e, 0xbc, 0x9f, 0x98, 0x9e, 0xbd,
  0x09, 0x06, 0x46, 0xbf, 0xfc, 0xb0, 0xac, 0x3d, 0xa7, 0xbe, 0x36, 0x3f,
  0xd0, 0x54, 0x11, 0x3e, 0xc8, 0x32, 0xc1, 0xbe, 0x18, 0xd1, 0x10, 0x3f,
  0x5b, 0x70, 0xeb, 0x3e, 0x3f, 0x4a, 0x26, 0x3e, 0x54, 0x95, 0xc9, 0xbd,
  0x03, 0x58, 0x9b, 0xbd, 0xc4, 0x1e, 0xce, 0xbd, 0x41, 0x73, 0x48, 0xbf,
  0xd4, 0xa8, 0x61, 0x3e, 0x77, 0xa3, 0x4b, 0xbe, 0x40, 0x71, 0x93, 0xbd,
  0x32, 0x07, 0xef, 0xbe, 0xb9, 0xb3, 0x01, 0xbf, 0xd7, 0x43, 0x24, 0x3f,
  0xfa, 0x5d, 0xbf, 0x3e, 0xbd, 0x20, 0xef, 0x3d, 0xdd, 0xfd, 0xbb, 0x3e,
  0x9d, 0x03, 0xf4, 0xbd, 0x75, 0x78, 0x5f, 0xbf, 0x69, 0xd8, 0xc2, 0x3e,
  0x55, 0x28, 0x41, 0x3e, 0x08, 0x80, 0x47, 0xbe, 0xc5, 0x5f, 0x01, 0x3e,
  0xcc, 0x6c, 0x57, 0xbe, 0x9f, 0x81, 0xe0, 0xbd, 0x6a, 0xa8, 0xb8, 0xbd,
  0x21, 0x39, 0x01, 0xbe, 0x55, 0x6e, 0xbb, 0xbd, 0xdc, 0x46, 0x66, 0xbe,
  0x96, 0x43, 0x1c, 0xbf, 0x7e, 0xd0, 0x0e, 0xbf, 0x65, 0xa9, 0x23, 0x3f,
  0xa2, 0xcc, 0xd8, 0x3d, 0xf4, 0xa4, 0xb6, 0x3e, 0x44, 0xf9, 0x81, 0x3e,
  0x4f, 0x49, 0x84, 0xbe, 0x1c, 0x7e, 0x32, 0xbf, 0x2a, 0x74, 0x3f, 0x3e,
  0x50, 0x8f, 0xcf, 0x3e, 0x55, 0x1c, 0x9c, 0x3e, 0x5b, 0xae, 0x44, 0x3e,
  0x2c, 0x2d, 0x6b, 0xbf, 0x93, 0x9c, 0x22, 0xbf, 0x16, 0x82, 0xbe, 0xbd,
  0xa1, 0xe2, 0xb2, 0xbd, 0xa6, 0xb8, 0x0a, 0xbe, 0xa0, 0x21, 0xa8, 0x3e,
  0xe5, 0xd4, 0x11, 0xbf, 0xd1, 0xb3, 0x2b, 0xbe, 0x61, 0x13, 0xef, 0xbc,
  0xb1, 0xde, 0x99, 0x3e, 0x2a, 0x90, 0xa3, 0xbd, 0xa1, 0x53, 0x07, 0xbe,
  0x88, 0x37, 0x8a, 0xbe, 0x69, 0x14, 0xd9, 0xbe, 0x3c, 0x89, 0x13, 0xbf,
  0x7d, 0xa2, 0xef, 0xbe, 0xf3, 0x58, 0xe4, 0x3d, 0x4c, 0x22, 0x4d, 0x3e,
  0x45, 0x51, 0x93, 0xbe, 0x93, 0xc7, 0xbc, 0xbe, 0x3d, 0xa3, 0x49, 0x3d,
  0x50, 0x0d, 0xcc, 0x3e, 0x47, 0xf7, 0x2a, 0x3d, 0x45, 0x50, 0xed, 0xbd,
  0xec, 0x33, 0x76, 0x3e, 0x8e, 0x87, 0x56, 0x3e, 0xa0, 0x51, 0x30, 0x3e,
  0x48, 0x1f, 0x45, 0x3d, 0x4d, 0xc5, 0x92, 0xbe, 0x96, 0x31, 0x1b, 0x3e,
  0xe6, 0x9e, 0x34, 0xbf, 0x88, 0x81, 0xec, 0xbd, 0x85, 0x7b, 0xd4, 0x3e,
  0x0c, 0x4b, 0x31, 0x3f, 0xfa, 0xe0, 0xaa, 0x3d, 0x13, 0x0c, 0x16, 0x3f,
  0x13, 0x58, 0x55, 0x3e, 0xb4, 0x26, 0xd8, 0xbd, 0x8a, 0x4d, 0x2b, 0x3f,
  0x7d, 0xfa, 0xd3, 0x3e, 0x20, 0xb6, 0x87, 0xbd, 0x11, 0x1b, 0x3d, 0x3d,
  0x7b, 0x00, 0x63, 0x3d, 0x3f, 0xb5, 0xa6, 0x3e, 0x58, 0xa1, 0x7e, 0xbe,
  0x0c, 0x10, 0x0f, 0xbe, 0xea, 0x3c, 0x82, 0xbe, 0xe5, 0x40, 0xd9, 0x3e,
  0x67, 0x28, 0x0e, 0xc0, 0xd8, 0x25, 0x80, 0xbe, 0x7d, 0x30, 0x96, 0x3f,
  0xa4, 0x1c, 0x5e, 0x3f, 0x03, 0xbe, 0xb1, 0xbe, 0xb9, 0xbb, 0xab, 0xbe,
  0x9b, 0x3f, 0x6c, 0x3e, 0x12, 0x16, 0x8c, 0xbe, 0xbd, 0x5e, 0x21, 0xbf,
  0x1f, 0xa0, 0x30, 0xbf, 0xfd, 0xb1, 0xe3, 0xbc, 0x05, 0x2e, 0x35, 0x3f,
  0xb9, 0xa2, 0xba, 0xbe, 0x07, 0xab, 0x32, 0x3e, 0xfe, 0x21, 0x42, 0xbe,
  0x25, 0xe4, 0xd0, 0x3e, 0x7d, 0x29, 0x0e, 0x3f, 0x99, 0xe9, 0xdc, 0x3e,
  0x1d, 0xe2, 0xd7, 0xbd, 0xbb, 0xce, 0xa9, 0x3d, 0x44, 0xd3, 0x45, 0xbf,
  0x47, 0x70, 0x05, 0xbe, 0xc5, 0x91, 0x14, 0xbe, 0x10, 0x8c, 0x3e, 0xbf,
  0x86, 0xc4, 0x24, 0x3d, 0x76, 0xfc, 0x4e, 0x3c, 0x49, 0x0e, 0x00, 0xbf,
  0xd1, 0x81, 0x04, 0xbf, 0x54, 0x5b, 0x1d, 0xbe, 0x9c, 0x76, 0x2d, 0x3e,
  0x2d, 0x5d, 0x90, 0xbc, 0x97, 0x05, 0x00, 0x3e, 0x0a, 0x6a, 0x2b, 0xbd,
  0x2b, 0xc6, 0x41, 0x3f, 0x07, 0x69, 0x60, 0x3e, 0x83, 0xaa, 0x99, 0x3d,
  0x21, 0xe4, 0x30, 0xbd, 0xba, 0x61, 0x98, 0xbd, 0x4e, 0xad, 0x82, 0xbf,
  0x1c, 0x4f, 0x8c, 0xbe, 0xf5, 0x24, 0xb0, 0xbe, 0xf0, 0xde, 0x19, 0xbf,
  0x86, 0xa0, 0xff, 0xbc, 0xd4, 0xed, 0x82, 0xbe, 0xf5, 0x40, 0xa2, 0xbe,
  0xc3, 0x58, 0xf7, 0x3e, 0x69, 0x37, 0x48, 0x3b, 0xfe, 0xb0, 0x8a, 0x3e,
  0xe1, 0xf4, 0x43, 0xbe, 0x84, 0x8d, 0x5f, 0xbe, 0x01, 0xc3, 0x12, 0xbe,
  0x46, 0xe7, 0xae, 0x3e, 0xc2, 0x0c, 0x72, 0x3c, 0x53, 0x11, 0xe3, 0x3d,
  0x5a, 0x7e, 0x19, 0xbe, 0x73, 0x90, 0xb6, 0x3d, 0xd1, 0x45, 0xa2, 0xbf,
  0x6d, 0xf0, 0x28, 0xbf, 0x3e, 0xd8, 0x5d, 0x3e, 0x5d, 0xa9, 0x67, 0xbe,
  0x5a, 0xbf, 0xde, 0x3d, 0x94, 0xae, 0x83, 0x3e, 0x8c, 0xd8, 0xf0, 0xbd,
  0x10, 0xac, 0xef, 0x3e, 0xbd, 0x3d, 0xbd, 0xbd, 0xa3, 0xed, 0xac, 0xbe,
  0x5e, 0xcf, 0xb7, 0x3e, 0x5c, 0x45, 0xec, 0x3d, 0xa5, 0x28, 0x95, 0xbf,
  0x60, 0x6f, 0xc0, 0xbe, 0xda, 0xbc, 0x2c, 0xbf, 0xf1, 0x12, 0xa0, 0xbe,
  0x77, 0x5e, 0xbd, 0x3d, 0xef, 0x9d, 0x74, 0xbe, 0x92, 0x43, 0x60, 0x3e,
  0x1e, 0xe9, 0x44, 0xbc, 0x9e, 0x09, 0x63, 0xbe, 0xf9, 0xff, 0x17, 0xbd,
  0xf6, 0x27, 0xfb, 0x3c, 0x04, 0x25, 0x9a, 0x3c, 0x79, 0xd0, 0xad, 0xbe,
  0x4f, 0xec, 0x0d, 0x3e, 0xdc, 0xbd, 0xa7, 0xbd, 0xf9, 0x98, 0x94, 0xbe,
  0x0e, 0xdb, 0x12, 0xbe, 0x28, 0x4c, 0xaa, 0x3e, 0x39, 0x38, 0xe4, 0xbe,
  0x26, 0x15, 0xcf, 0xbd, 0x90, 0x9a, 0x69, 0xbd, 0xfe, 0x1e, 0x79, 0x3e,
  0xb9, 0xe2, 0x3f, 0xbe, 0x1c, 0x94, 0x29, 0xbf, 0xdc, 0x37, 0x83, 0x3f,
  0x5b, 0xa6, 0xe9, 0xbd, 0x8a, 0x51, 0xad, 0xbe, 0x84, 0x1f, 0x72, 0x3e,
  0xa4, 0x35, 0x40, 0xbe, 0x60, 0x21, 0x78, 0x3d, 0x9a, 0x2e, 0x34, 0xbf,
  0xfb, 0xda, 0x68, 0xbe, 0x62, 0x96, 0x30, 0x3e, 0xc1, 0xe8, 0x68, 0x3e,
  0x8e, 0x86, 0x38, 0xbe, 0xeb, 0xba, 0x19, 0x3e, 0x2b, 0xd1, 0x6c, 0xbe,
  0x5c, 0x7a, 0xeb, 0xbe, 0xf0, 0x8d, 0x93, 0x3d, 0x30, 0xdc, 0xef, 0x3e,
  0x73, 0x85, 0x55, 0xbe, 0x2d, 0x4a, 0x28, 0xbf, 0xec, 0xa7, 0x51, 0x3f,
  0x5f, 0x86, 0x5c, 0xbe, 0x6b, 0x68, 0x8f, 0xbe, 0x6d, 0xc1, 0xeb, 0x3e,
  0xca, 0xcb, 0xe2, 0xbc, 0x70, 0x17, 0xd1, 0xbf, 0x43, 0xa9, 0xa5, 0xbd,
  0xd2, 0xe0, 0x80, 0x3e, 0xe3, 0xf0, 0xf8, 0x3c, 0x6c, 0xfc, 0x5f, 0xbd,
  0x99, 0xdf, 0x05, 0xc0, 0x93, 0xb7, 0x96, 0x3d, 0x05, 0xfb, 0x6a, 0xbf,
  0x77, 0x85, 0x1e, 0xbf, 0x10, 0x9f, 0x0b, 0xbe, 0x8d, 0xac, 0x77, 0xbe,
  0x12, 0xa1, 0xcc, 0xbf, 0x6c, 0x0e, 0x6e, 0xbe, 0x08, 0xf0, 0x7b, 0x3d,
  0x2c, 0xa9, 0x3f, 0x3e, 0x77, 0x7f, 0xad, 0x3d, 0x8c, 0xce, 0x74, 0xbe,
  0xe5, 0xa9, 0x6d, 0x3e, 0x14, 0x08, 0x70, 0x3e, 0x2f, 0xdb, 0x19, 0xbf,
  0xa5, 0x16, 0xef, 0xbe, 0xb7, 0xc6, 0x1c, 0xbf, 0xc0, 0xb0, 0x46, 0x3e,
  0xe2, 0x51, 0xda, 0xbe, 0x60, 0x28, 0x07, 0x3e, 0x75, 0x40, 0x06, 0xbe,
  0x55, 0x31, 0x74, 0x3e, 0x1a, 0x37, 0x87, 0x3e, 0xf0, 0x57, 0xbf, 0xbe,
  0x31, 0xa5, 0xdd, 0x3d, 0xe6, 0x15, 0x54, 0x3f, 0x1a, 0xba, 0x8d, 0xbd,
  0x51, 0x15, 0xe4, 0xbe, 0x98, 0x9d, 0xd5, 0xbc, 0x98, 0xde, 0x63, 0xbe,
  0xe6, 0x44, 0x20, 0xbe, 0xeb, 0xff, 0xc8, 0x3e, 0x1e, 0xe6, 0x13, 0xbf,
  0x19, 0x68, 0x53, 0xbe, 0xfa, 0xb3, 0x82, 0xbf, 0xce, 0x58, 0xcd, 0xbd,
  0x5e, 0x34, 0x8e, 0x3e, 0x3a, 0x34, 0x13, 0xbf, 0x94, 0x2c, 0x36, 0xbe,
  0x81, 0x23, 0x01, 0x3f, 0x92, 0x1e, 0x38, 0x3f, 0x4b, 0x04, 0x48, 0xbf,
  0x21, 0x3d, 0x7e, 0x3f, 0xec, 0x7f, 0xc5, 0x3f, 0x6d, 0xb1, 0x4e, 0x3e,
  0x28, 0x55, 0xe2, 0xbe, 0x23, 0xe0, 0xd8, 0x3c, 0x81, 0x3b, 0x3a, 0x3e,
  0x23, 0x48, 0x5e, 0xbd, 0xb9, 0x96, 0xd5, 0xbe, 0x82, 0xe1, 0x44, 0xbe,
  0x19, 0xb5, 0x85, 0xbf, 0x1c, 0x5a, 0x54, 0x3e, 0x08, 0x0b, 0xd5, 0x3e,
  0x93, 0x66, 0x8d, 0xbe, 0x27, 0x1d, 0x85, 0xbd, 0xa3, 0xcb, 0x74, 0x3e,
  0x88, 0xde, 0xc2, 0x3e, 0x96, 0x99, 0x14, 0x3f, 0x51, 0xdf, 0xf0, 0x3e,
  0x42, 0xa6, 0xad, 0xbe, 0xf9, 0xf0, 0x15, 0x3f, 0x55, 0xa6, 0x73, 0xbe,
  0x77, 0xab, 0x23, 0xbf, 0x20, 0x41, 0xef, 0x3d, 0x4e, 0x4e, 0x9f, 0xbe,
  0x21, 0x52, 0xee, 0x3d, 0x2c, 0x0b, 0x30, 0xbf, 0x2e, 0xad, 0x9f, 0x3e,
  0x00, 0xca, 0xfb, 0xbf, 0x73, 0xfd, 0x13, 0xbe, 0x34, 0x68, 0xe8, 0x3d,
  0xe5, 0xaf, 0x9a, 0xbd, 0x2d, 0x27, 0x86, 0xbe, 0x22, 0x35, 0x3e, 0x3e,
  0xa3, 0x26, 0x62, 0x3e, 0xf5, 0x66, 0x71, 0x3c, 0x88, 0xee, 0x82, 0x3d,
  0xc7, 0xa0, 0x3d, 0xbe, 0x24, 0x37, 0x0a, 0x3f, 0x91, 0x48, 0xc2, 0xbe,
  0xdf, 0x30, 0xc2, 0xbd, 0xe4, 0x8c, 0x3e, 0xbe, 0x53, 0xb8, 0x5b, 0xbf,
  0x00, 0x99, 0x87, 0xbd, 0xe5, 0x50, 0x84, 0xbe, 0xd2, 0x91, 0x56, 0x3d,
  0x34, 0x83, 0x9a, 0xbf, 0xf3, 0xe0, 0xad, 0xbd, 0x2e, 0xf5, 0x9c, 0xbe,
  0xcb, 0xe3, 0x33, 0x3e, 0xd0, 0xc8, 0x35, 0xbe, 0xa1, 0xad, 0x0c, 0x3f,
  0xb9, 0x63, 0xea, 0x3d, 0xb7, 0xfa, 0x68, 0xbc, 0xc5, 0xfd, 0xeb, 0xbe,
  0x59, 0xcb, 0x51, 0x3d, 0xdf, 0x39, 0x38, 0x3f, 0x2a, 0x37, 0x69, 0xbe,
  0xcd, 0x52, 0xcb, 0xbe, 0x96, 0xff, 0xff, 0xff, 0x04, 0x00, 0x00, 0x00,
  0x04, 0x00, 0x00, 0x00, 0x0b, 0x9d, 0x59, 0x3b, 0xa6, 0xff, 0xff, 0xff,
  0x04, 0x00, 0x00, 0x00, 0x18, 0x00, 0x00, 0x00, 0x04, 0x15, 0x03, 0x3e,
  0xbc, 0xf3, 0x0b, 0xbf, 0x27, 0xf7, 0x4d, 0xbf, 0x9e, 0x9a, 0xf9, 0xbf,
  0x3c, 0xee, 0xad, 0xbe, 0xce, 0x7d, 0x55, 0xbf, 0xca, 0xff, 0xff, 0xff,
  0x04, 0x00, 0x00, 0x00, 0x28, 0x00, 0x00, 0x00, 0x87, 0x60, 0x8d, 0x3e,
  0xa6, 0x79, 0x9a, 0x39, 0x4f, 0x34, 0x20, 0xbf, 0xf4, 0x75, 0xda, 0xbd,
  0xe6, 0x71, 0x52, 0xbf, 0xf0, 0x99, 0x5d, 0xbd, 0x22, 0x1f, 0xee, 0xbe,
  0xf1, 0x21, 0x6b, 0xbe, 0xac, 0xe2, 0x8a, 0xbf, 0x19, 0xba, 0x58, 0xbe,
  0x00, 0x00, 0x06, 0x00, 0x08, 0x00, 0x04, 0x00, 0x06, 0x00, 0x00, 0x00,
  0x04, 0x00, 0x00, 0x00, 0x28, 0x00, 0x00, 0x00, 0x87, 0x14, 0x49, 0xbe,
  0xa0, 0xaf, 0xd6, 0xbd, 0x88, 0xe2, 0xa3, 0xbe, 0x39, 0xec, 0x93, 0x3e,
  0x1b, 0x3f, 0xa1, 0xbc, 0x9b, 0xfd, 0x4b, 0xbc, 0x6d, 0x41, 0x6a, 0xbd,
  0x88, 0x60, 0xfa, 0xbd, 0x18, 0x65, 0xd7, 0x3d, 0xec, 0x99, 0x6b, 0x3e,
  0xac, 0xf3, 0xff, 0xff, 0xb0, 0xf3, 0xff, 0xff, 0x0f, 0x00, 0x00, 0x00,
  0x4d, 0x4c, 0x49, 0x52, 0x20, 0x43, 0x6f, 0x6e, 0x76, 0x65, 0x72, 0x74,
  0x65, 0x64, 0x2e, 0x00, 0x01, 0x00, 0x00, 0x00, 0x14, 0x00, 0x00, 0x00,
  0x00, 0x00, 0x0e, 0x00, 0x18, 0x00, 0x14, 0x00, 0x10, 0x00, 0x0c, 0x00,
  0x08, 0x00, 0x04, 0x00, 0x0e, 0x00, 0x00, 0x00, 0x14, 0x00, 0x00, 0x00,
  0x1c, 0x00, 0x00, 0x00, 0x80, 0x02, 0x00, 0x00, 0x84, 0x02, 0x00, 0x00,
  0x88, 0x02, 0x00, 0x00, 0x04, 0x00, 0x00, 0x00, 0x6d, 0x61, 0x69, 0x6e,
  0x00, 0x00, 0x00, 0x00, 0x09, 0x00, 0x00, 0x00, 0x1c, 0x02, 0x00, 0x00,
  0xb8, 0x01, 0x00, 0x00, 0x68, 0x01, 0x00, 0x00, 0x24, 0x01, 0x00, 0x00,
  0xe4, 0x00, 0x00, 0x00, 0xb0, 0x00, 0x00, 0x00, 0x6c, 0x00, 0x00, 0x00,
  0x34, 0x00, 0x00, 0x00, 0x10, 0x00, 0x00, 0x00, 0x00, 0x00, 0x0a, 0x00,
  0x10, 0x00, 0x0c, 0x00, 0x08, 0x00, 0x04, 0x00, 0x0a, 0x00, 0x00, 0x00,
  0x0c, 0x00, 0x00, 0x00, 0x10, 0x00, 0x00, 0x00, 0x04, 0x00, 0x00, 0x00,
  0x01, 0x00, 0x00, 0x00, 0x14, 0x00, 0x00, 0x00, 0x01, 0x00, 0x00, 0x00,
  0x13, 0x00, 0x00, 0x00, 0xa2, 0xfe, 0xff, 0xff, 0x14, 0x00, 0x00, 0x00,
  0x00, 0x00, 0x00, 0x08, 0x10, 0x00, 0x00, 0x00, 0x14, 0x00, 0x00, 0x00,
  0x03, 0x00, 0x00, 0x00, 0x70, 0xf4, 0xff, 0xff, 0x01, 0x00, 0x00, 0x00,
  0x13, 0x00, 0x00, 0x00, 0x03, 0x00, 0x00, 0x00, 0x12, 0x00, 0x00, 0x00,
  0x07, 0x00, 0x00, 0x00, 0x04, 0x00, 0x00, 0x00, 0xd6, 0xfe, 0xff, 0xff,
  0x1c, 0x00, 0x00, 0x00, 0x00, 0x00, 0x00, 0x08, 0x1c, 0x00, 0x00, 0x00,
  0x20, 0x00, 0x00, 0x00, 0x03, 0x00, 0x00, 0x00, 0x00, 0x00, 0x06, 0x00,
  0x08, 0x00, 0x07, 0x00, 0x06, 0x00, 0x00, 0x00, 0x00, 0x00, 0x00, 0x01,
  0x01, 0x00, 0x00, 0x00, 0x12, 0x00, 0x00, 0x00, 0x03, 0x00, 0x00, 0x00,
  0x11, 0x00, 0x00, 0x00, 0x08, 0x00, 0x00, 0x00, 0x01, 0x00, 0x00, 0x00,
  0x16, 0xff, 0xff, 0xff, 0x14, 0x00, 0x00, 0x00, 0x00, 0x00, 0x00, 0x1b,
  0x10, 0x00, 0x00, 0x00, 0x14, 0x00, 0x00, 0x00, 0x02, 0x00, 0x00, 0x00,
  0xe4, 0xf4, 0xff, 0xff, 0x01, 0x00, 0x00, 0x00, 0x11, 0x00, 0x00, 0x00,
  0x02, 0x00, 0x00, 0x00, 0x10, 0x00, 0x00, 0x00, 0x09, 0x00, 0x00, 0x00,
  0xe6, 0xfe, 0xff, 0xff, 0x10, 0x00, 0x00, 0x00, 0x00, 0x00, 0x00, 0x01,
  0x18, 0x00, 0x00, 0x00, 0x1c, 0x00, 0x00, 0x00, 0xd8, 0xfe, 0xff, 0xff,
  0x00, 0x00, 0x00, 0x01, 0x01, 0x00, 0x00, 0x00, 0x01, 0x00, 0x00, 0x00,
  0x01, 0x00, 0x00, 0x00, 0x10, 0x00, 0x00, 0x00, 0x03, 0x00, 0x00, 0x00,
  0x0f, 0x00, 0x00, 0x00, 0x05, 0x00, 0x00, 0x00, 0x02, 0x00, 0x00, 0x00,
  0x82, 0xff, 0xff, 0xff, 0x14, 0x00, 0x00, 0x00, 0x00, 0x00, 0x00, 0x05,
  0x24, 0x00, 0x00, 0x00, 0x28, 0x00, 0x00, 0x00, 0x01, 0x00, 0x00, 0x00,
  0x72, 0xff, 0xff, 0xff, 0x02, 0x00, 0x00, 0x00, 0x02, 0x00, 0x00, 0x00,
  0x02, 0x00, 0x00, 0x00, 0x02, 0x00, 0x00, 0x00, 0x00, 0x00, 0x00, 0x01,
  0x01, 0x00, 0x00, 0x00, 0x0f, 0x00, 0x00, 0x00, 0x01, 0x00, 0x00, 0x00,
  0x0e, 0x00, 0x00, 0x00, 0x62, 0xff, 0xff, 0xff, 0x10, 0x00, 0x00, 0x00,
  0x00, 0x00, 0x00, 0x01, 0x18, 0x00, 0x00, 0x00, 0x1c, 0x00, 0x00, 0x00,
  0x54, 0xff, 0xff, 0xff, 0x00, 0x00, 0x00, 0x01, 0x01, 0x00, 0x00, 0x00,
  0x01, 0x00, 0x00, 0x00, 0x01, 0x00, 0x00, 0x00, 0x0e, 0x00, 0x00, 0x00,
  0x03, 0x00, 0x00, 0x00, 0x0d, 0x00, 0x00, 0x00, 0x06, 0x00, 0x00, 0x00,
  0x03, 0x00, 0x00, 0x00, 0x00, 0x00, 0x0e, 0x00, 0x1a, 0x00, 0x14, 0x00,
  0x10, 0x00, 0x0c, 0x00, 0x0b, 0x00, 0x04, 0x00, 0x0e, 0x00, 0x00, 0x00,
  0x24, 0x00, 0x00, 0x00, 0x00, 0x00, 0x00, 0x05, 0x34, 0x00, 0x00, 0x00,
  0x38, 0x00, 0x00, 0x00, 0x01, 0x00, 0x00, 0x00, 0x00, 0x00, 0x0e, 0x00,
  0x18, 0x00, 0x17, 0x00, 0x10, 0x00, 0x0c, 0x00, 0x08, 0x00, 0x04, 0x00,
  0x0e, 0x00, 0x00, 0x00, 0x02, 0x00, 0x00, 0x00, 0x01, 0x00, 0x00, 0x00,
  0x02, 0x00, 0x00, 0x00, 0x01, 0x00, 0x00, 0x00, 0x00, 0x00, 0x00, 0x01,
  0x01, 0x00, 0x00, 0x00, 0x0d, 0x00, 0x00, 0x00, 0x01, 0x00, 0x00, 0x00,
  0x0c, 0x00, 0x00, 0x00, 0x00, 0x00, 0x0e, 0x00, 0x14, 0x00, 0x00, 0x00,
  0x10, 0x00, 0x0c, 0x00, 0x0b, 0x00, 0x04, 0x00, 0x0e, 0x00, 0x00, 0x00,
  0x1c, 0x00, 0x00, 0x00, 0x00, 0x00, 0x00, 0x01, 0x24, 0x00, 0x00, 0x00,
  0x28, 0x00, 0x00, 0x00, 0x0c, 0x00, 0x10, 0x00, 0x00, 0x00, 0x0c, 0x00,
  0x08, 0x00, 0x07, 0x00, 0x0c, 0x00, 0x00, 0x00, 0x00, 0x00, 0x00, 0x01,
  0x01, 0x00, 0x00, 0x00, 0x01, 0x00, 0x00, 0x00, 0x01, 0x00, 0x00, 0x00,
  0x0c, 0x00, 0x00, 0x00, 0x03, 0x00, 0x00, 0x00, 0x00, 0x00, 0x00, 0x00,
  0x0a, 0x00, 0x00, 0x00, 0x0b, 0x00, 0x00, 0x00, 0x01, 0x00, 0x00, 0x00,
  0x14, 0x00, 0x00, 0x00, 0x01, 0x00, 0x00, 0x00, 0x00, 0x00, 0x00, 0x00,
  0x15, 0x00, 0x00, 0x00, 0x50, 0x09, 0x00, 0x00, 0xfc, 0x08, 0x00, 0x00,
  0xa8, 0x08, 0x00, 0x00, 0x6c, 0x08, 0x00, 0x00, 0x30, 0x08, 0x00, 0x00,
  0xe8, 0x07, 0x00, 0x00, 0xa0, 0x07, 0x00, 0x00, 0x60, 0x07, 0x00, 0x00,
  0x20, 0x07, 0x00, 0x00, 0xa8, 0x06, 0x00, 0x00, 0x2c, 0x06, 0x00, 0x00,
  0x84, 0x05, 0x00, 0x00, 0xb8, 0x04, 0x00, 0x00, 0x34, 0x04, 0x00, 0x00,
  0x68, 0x03, 0x00, 0x00, 0xe4, 0x02, 0x00, 0x00, 0x18, 0x02, 0x00, 0x00,
  0xa0, 0x01, 0x00, 0x00, 0xec, 0x00, 0x00, 0x00, 0x60, 0x00, 0x00, 0x00,
  0x04, 0x00, 0x00, 0x00, 0x1a, 0xf7, 0xff, 0xff, 0x00, 0x00, 0x00, 0x01,
  0x14, 0x00, 0x00, 0x00, 0x1c, 0x00, 0x00, 0x00, 0x1c, 0x00, 0x00, 0x00,
  0x15, 0x00, 0x00, 0x00, 0x34, 0x00, 0x00, 0x00, 0x02, 0x00, 0x00, 0x00,
  0xff, 0xff, 0xff, 0xff, 0x01, 0x00, 0x00, 0x00, 0xfc, 0xf6, 0xff, 0xff,
  0x1b, 0x00, 0x00, 0x00, 0x53, 0x74, 0x61, 0x74, 0x65, 0x66, 0x75, 0x6c,
  0x50, 0x61, 0x72, 0x74, 0x69, 0x74, 0x69, 0x6f, 0x6e, 0x65, 0x64, 0x43,
  0x61, 0x6c, 0x6c, 0x5f, 0x31, 0x3a, 0x30, 0x00, 0x02, 0x00, 0x00, 0x00,
  0x01, 0x00, 0x00, 0x00, 0x01, 0x00, 0x00, 0x00, 0x72, 0xf7, 0xff, 0xff,
  0x00, 0x00, 0x00, 0x01, 0x14, 0x00, 0x00, 0x00, 0x1c, 0x00, 0x00, 0x00,
  0x1c, 0x00, 0x00, 0x00, 0x14, 0x00, 0x00, 0x00, 0x64, 0x00, 0x00, 0x00,
  0x02, 0x00, 0x00, 0x00, 0xff, 0xff, 0xff, 0xff, 0x01, 0x00, 0x00, 0x00,
  0x54, 0xf7, 0xff, 0xff, 0x48, 0x00, 0x00, 0x00, 0x74, 0x69, 0x6e, 0x79,
  0x5f, 0x74, 0x65, 0x6d, 0x70, 0x6f, 0x72, 0x61, 0x6c, 0x5f, 0x35, 0x6b,
  0x62, 0x5f, 0x31, 0x2f, 0x64, 0x65, 0x6e, 0x73, 0x65, 0x5f, 0x31, 0x36,
  0x5f, 0x31, 0x2f, 0x4d, 0x61, 0x74, 0x4d, 0x75, 0x6c, 0x3b, 0x74, 0x69,
  0x6e, 0x79, 0x5f, 0x74, 0x65, 0x6d, 0x70, 0x6f, 0x72, 0x61, 0x6c, 0x5f,
  0x35, 0x6b, 0x62, 0x5f, 0x31, 0x2f, 0x64, 0x65, 0x6e, 0x73, 0x65, 0x5f,
  0x31, 0x36, 0x5f, 0x31, 0x2f, 0x41, 0x64, 0x64, 0x00, 0x00, 0x00, 0x00,
  0x02, 0x00, 0x00, 0x00, 0x01, 0x00, 0x00, 0x00, 0x01, 0x00, 0x00, 0x00,
  0xfa, 0xf7, 0xff, 0xff, 0x00, 0x00, 0x00, 0x01, 0x14, 0x00, 0x00, 0x00,
  0x1c, 0x00, 0x00, 0x00, 0x1c, 0x00, 0x00, 0x00, 0x13, 0x00, 0x00, 0x00,
  0x8c, 0x00, 0x00, 0x00, 0x02, 0x00, 0x00, 0x00, 0xff, 0xff, 0xff, 0xff,
  0x0a, 0x00, 0x00, 0x00, 0xdc, 0xf7, 0xff, 0xff, 0x70, 0x00, 0x00, 0x00,
  0x74, 0x69, 0x6e, 0x79, 0x5f, 0x74, 0x65, 0x6d, 0x70, 0x6f, 0x72, 0x61,
  0x6c, 0x5f, 0x35, 0x6b, 0x62, 0x5f, 0x31, 0x2f, 0x64, 0x65, 0x6e, 0x73,
  0x65, 0x5f, 0x31, 0x35, 0x5f, 0x31, 0x2f, 0x4d, 0x61, 0x74, 0x4d, 0x75,
  0x6c, 0x3b, 0x74, 0x69, 0x6e, 0x79, 0x5f, 0x74, 0x65, 0x6d, 0x70, 0x6f,
  0x72, 0x61, 0x6c, 0x5f, 0x35, 0x6b, 0x62, 0x5f, 0x31, 0x2f, 0x64, 0x65,
  0x6e, 0x73, 0x65, 0x5f, 0x31, 0x35, 0x5f, 0x31, 0x2f, 0x52, 0x65, 0x6c,
  0x75, 0x3b, 0x74, 0x69, 0x6e, 0x79, 0x5f, 0x74, 0x65, 0x6d, 0x70, 0x6f,
  0x72, 0x61, 0x6c, 0x5f, 0x35, 0x6b, 0x62, 0x5f, 0x31, 0x2f, 0x64, 0x65,
  0x6e, 0x73, 0x65, 0x5f, 0x31, 0x35, 0x5f, 0x31, 0x2f, 0x42, 0x69, 0x61,
  0x73, 0x41, 0x64, 0x64, 0x00, 0x00, 0x00, 0x00, 0x02, 0x00, 0x00, 0x00,
  0x01, 0x00, 0x00, 0x00, 0x0a, 0x00, 0x00, 0x00, 0xaa, 0xf8, 0xff, 0xff,
  0x00, 0x00, 0x00, 0x01, 0x14, 0x00, 0x00, 0x00, 0x1c, 0x00, 0x00, 0x00,
  0x1c, 0x00, 0x00, 0x00, 0x12, 0x00, 0x00, 0x00, 0x50, 0x00, 0x00, 0x00,
  0x02, 0x00, 0x00, 0x00, 0xff, 0xff, 0xff, 0xff, 0x0a, 0x00, 0x00, 0x00,
  0x8c, 0xf8, 0xff, 0xff, 0x35, 0x00, 0x00, 0x00, 0x74, 0x69, 0x6e, 0x79,
  0x5f, 0x74, 0x65, 0x6d, 0x70, 0x6f, 0x72, 0x61, 0x6c, 0x5f, 0x35, 0x6b,
  0x62, 0x5f, 0x31, 0x2f, 0x67, 0x6c, 0x6f, 0x62, 0x61, 0x6c, 0x5f, 0x61,
  0x76, 0x65, 0x72, 0x61, 0x67, 0x65, 0x5f, 0x70, 0x6f, 0x6f, 0x6c, 0x69,
  0x6e, 0x67, 0x32, 0x64, 0x5f, 0x35, 0x5f, 0x31, 0x2f, 0x4d, 0x65, 0x61,
  0x6e, 0x00, 0x00, 0x00, 0x02, 0x00, 0x00, 0x00, 0x01, 0x00, 0x00, 0x00,
  0x0a, 0x00, 0x00, 0x00, 0x1e, 0xf9, 0xff, 0xff, 0x00, 0x00, 0x00, 0x01,
  0x14, 0x00, 0x00, 0x00, 0x24, 0x00, 0x00, 0x00, 0x24, 0x00, 0x00, 0x00,
  0x11, 0x00, 0x00, 0x00, 0x9c, 0x00, 0x00, 0x00, 0x04, 0x00, 0x00, 0x00,
  0xff, 0xff, 0xff, 0xff, 0x13, 0x00, 0x00, 0x00, 0x05, 0x00, 0x00, 0x00,
  0x0a, 0x00, 0x00, 0x00, 0x08, 0xf9, 0xff, 0xff, 0x79, 0x00, 0x00, 0x00,
  0x74, 0x69, 0x6e, 0x79, 0x5f, 0x74, 0x65, 0x6d, 0x70, 0x6f, 0x72, 0x61,
  0x6c, 0x5f, 0x35, 0x6b, 0x62, 0x5f, 0x31, 0x2f, 0x63, 0x6f, 0x6e, 0x76,
  0x32, 0x64, 0x5f, 0x31, 0x37, 0x5f, 0x31, 0x2f, 0x52, 0x65, 0x6c, 0x75,
  0x3b, 0x74, 0x69, 0x6e, 0x79, 0x5f, 0x74, 0x65, 0x6d, 0x70, 0x6f, 0x72,
  0x61, 0x6c, 0x5f, 0x35, 0x6b, 0x62, 0x5f, 0x31, 0x2f, 0x63, 0x6f, 0x6e,
  0x76, 0x32, 0x64, 0x5f, 0x31, 0x37, 0x5f, 0x31, 0x2f, 0x42, 0x69, 0x61,
  0x73, 0x41, 0x64, 0x64, 0x3b, 0x74, 0x69, 0x6e, 0x79, 0x5f, 0x74, 0x65,
  0x6d, 0x70, 0x6f, 0x72, 0x61, 0x6c, 0x5f, 0x35, 0x6b, 0x62, 0x5f, 0x31,
  0x2f, 0x63, 0x6f, 0x6e, 0x76, 0x32, 0x64, 0x5f, 0x31, 0x37, 0x5f, 0x31,
  0x2f, 0x63, 0x6f, 0x6e, 0x76, 0x6f, 0x6c, 0x75, 0x74, 0x69, 0x6f, 0x6e,
  0x3b, 0x00, 0x00, 0x00, 0x04, 0x00, 0x00, 0x00, 0x01, 0x00, 0x00, 0x00,
  0x13, 0x00, 0x00, 0x00, 0x05, 0x00, 0x00, 0x00, 0x0a, 0x00, 0x00, 0x00,
  0xe6, 0xf9, 0xff, 0xff, 0x00, 0x00, 0x00, 0x01, 0x14, 0x00, 0x00, 0x00,
  0x24, 0x00, 0x00, 0x00, 0x24, 0x00, 0x00, 0x00, 0x10, 0x00, 0x00, 0x00,
  0x54, 0x00, 0x00, 0x00, 0x04, 0x00, 0x00, 0x00, 0xff, 0xff, 0xff, 0xff,
  0x13, 0x00, 0x00, 0x00, 0x05, 0x00, 0x00, 0x00, 0x06, 0x00, 0x00, 0x00,
  0xd0, 0xf9, 0xff, 0xff, 0x30, 0x00, 0x00, 0x00, 0x74, 0x69, 0x6e, 0x79,
  0x5f, 0x74, 0x65, 0x6d, 0x70, 0x6f, 0x72, 0x61, 0x6c, 0x5f, 0x35, 0x6b,
  0x62, 0x5f, 0x31, 0x2f, 0x6d, 0x61, 0x78, 0x5f, 0x70, 0x6f, 0x6f, 0x6c,
  0x69, 0x6e, 0x67, 0x32, 0x64, 0x5f, 0x31, 0x31, 0x5f, 0x31, 0x2f, 0x4d,
  0x61, 0x78, 0x50, 0x6f, 0x6f, 0x6c, 0x32, 0x64, 0x00, 0x00, 0x00, 0x00,
  0x04, 0x00, 0x00, 0x00, 0x01, 0x00, 0x00, 0x00, 0x13, 0x00, 0x00, 0x00,
  0x05, 0x00, 0x00, 0x00, 0x06, 0x00, 0x00, 0x00, 0x66, 0xfa, 0xff, 0xff,
  0x00, 0x00, 0x00, 0x01, 0x14, 0x00, 0x00, 0x00, 0x24, 0x00, 0x00, 0x00,
  0x24, 0x00, 0x00, 0x00, 0x0f, 0x00, 0x00, 0x00, 0x9c, 0x00, 0x00, 0x00,
  0x04, 0x00, 0x00, 0x00, 0xff, 0xff, 0xff, 0xff, 0x27, 0x00, 0x00, 0x00,
  0x0a, 0x00, 0x00, 0x00, 0x06, 0x00, 0x00, 0x00, 0x50, 0xfa, 0xff, 0xff,
  0x79, 0x00, 0x00, 0x00, 0x74, 0x69, 0x6e, 0x79, 0x5f, 0x74, 0x65, 0x6d,
  0x70, 0x6f, 0x72, 0x61, 0x6c, 0x5f, 0x35, 0x6b, 0x62, 0x5f, 0x31, 0x2f,
  0x63, 0x6f, 0x6e, 0x76, 0x32, 0x64, 0x5f, 0x31, 0x36, 0x5f, 0x31, 0x2f,
  0x52, 0x65, 0x6c, 0x75, 0x3b, 0x74, 0x69, 0x6e, 0x79, 0x5f, 0x74, 0x65,
  0x6d, 0x70, 0x6f, 0x72, 0x61, 0x6c, 0x5f, 0x35, 0x6b, 0x62, 0x5f, 0x31,
  0x2f, 0x63, 0x6f, 0x6e, 0x76, 0x32, 0x64, 0x5f, 0x31, 0x36, 0x5f, 0x31,
  0x2f, 0x42, 0x69, 0x61, 0x73, 0x41, 0x64, 0x64, 0x3b, 0x74, 0x69, 0x6e,
  0x79, 0x5f, 0x74, 0x65, 0x6d, 0x70, 0x6f, 0x72, 0x61, 0x6c, 0x5f, 0x35,
  0x6b, 0x62, 0x5f, 0x31, 0x2f, 0x63, 0x6f, 0x6e, 0x76, 0x32, 0x64, 0x5f,
  0x31, 0x36, 0x5f, 0x31, 0x2f, 0x63, 0x6f, 0x6e, 0x76, 0x6f, 0x6c, 0x75,
  0x74, 0x69, 0x6f, 0x6e, 0x3b, 0x00, 0x00, 0x00, 0x04, 0x00, 0x00, 0x00,
  0x01, 0x00, 0x00, 0x00, 0x27, 0x00, 0x00, 0x00, 0x0a, 0x00, 0x00, 0x00,
  0x06, 0x00, 0x00, 0x00, 0x2e, 0xfb, 0xff, 0xff, 0x00, 0x00, 0x00, 0x01,
  0x14, 0x00, 0x00, 0x00, 0x24, 0x00, 0x00, 0x00, 0x24, 0x00, 0x00, 0x00,
  0x0e, 0x00, 0x00, 0x00, 0x54, 0x00, 0x00, 0x00, 0x04, 0x00, 0x00, 0x00,
  0xff, 0xff, 0xff, 0xff, 0x27, 0x00, 0x00, 0x00, 0x0a, 0x00, 0x00, 0x00,
  0x03, 0x00, 0x00, 0x00, 0x18, 0xfb, 0xff, 0xff, 0x30, 0x00, 0x00, 0x00,
  0x74, 0x69, 0x6e, 0x79, 0x5f, 0x74, 0x65, 0x6d, 0x70, 0x6f, 0x72, 0x61,
  0x6c, 0x5f, 0x35, 0x6b, 0x62, 0x5f, 0x31, 0x2f, 0x6d, 0x61, 0x78, 0x5f,
  0x70, 0x6f, 0x6f, 0x6c, 0x69, 0x6e, 0x67, 0x32, 0x64, 0x5f, 0x31, 0x30,
  0x5f, 0x31, 0x2f, 0x4d, 0x61, 0x78, 0x50, 0x6f, 0x6f, 0x6c, 0x32, 0x64,
  0x00, 0x00, 0x00, 0x00, 0x04, 0x00, 0x00, 0x00, 0x01, 0x00, 0x00, 0x00,
  0x27, 0x00, 0x00, 0x00, 0x0a, 0x00, 0x00, 0x00, 0x03, 0x00, 0x00, 0x00,
  0xae, 0xfb, 0xff, 0xff, 0x00, 0x00, 0x00, 0x01, 0x14, 0x00, 0x00, 0x00,
  0x24, 0x00, 0x00, 0x00, 0x24, 0x00, 0x00, 0x00, 0x0d, 0x00, 0x00, 0x00,
  0x9c, 0x00, 0x00, 0x00, 0x04, 0x00, 0x00, 0x00, 0xff, 0xff, 0xff, 0xff,
  0x4f, 0x00, 0x00, 0x00, 0x0a, 0x00, 0x00, 0x00, 0x03, 0x00, 0x00, 0x00,
  0x98, 0xfb, 0xff, 0xff, 0x7a, 0x00, 0x00, 0x00, 0x74, 0x69, 0x6e, 0x79,
  0x5f, 0x74, 0x65, 0x6d, 0x70, 0x6f, 0x72, 0x61, 0x6c, 0x5f, 0x35, 0x6b,
  0x62, 0x5f, 0x31, 0x2f, 0x63, 0x6f, 0x6e, 0x76, 0x32, 0x64, 0x5f, 0x31,
  0x35, 0x5f, 0x31, 0x2f, 0x52, 0x65, 0x6c, 0x75, 0x3b, 0x74, 0x69, 0x6e,
  0x79, 0x5f, 0x74, 0x65, 0x6d, 0x70, 0x6f, 0x72, 0x61, 0x6c, 0x5f, 0x35,
  0x6b, 0x62, 0x5f, 0x31, 0x2f, 0x63, 0x6f, 0x6e, 0x76, 0x32, 0x64, 0x5f,
  0x31, 0x35, 0x5f, 0x31, 0x2f, 0x42, 0x69, 0x61, 0x73, 0x41, 0x64, 0x64,
  0x3b, 0x74, 0x69, 0x6e, 0x79, 0x5f, 0x74, 0x65, 0x6d, 0x70, 0x6f, 0x72,
  0x61, 0x6c, 0x5f, 0x35, 0x6b, 0x62, 0x5f, 0x31, 0x2f, 0x63, 0x6f, 0x6e,
  0x76, 0x32, 0x64, 0x5f, 0x31, 0x35, 0x5f, 0x31, 0x2f, 0x63, 0x6f, 0x6e,
  0x76, 0x6f, 0x6c, 0x75, 0x74, 0x69, 0x6f, 0x6e, 0x3b, 0x31, 0x00, 0x00,
  0x04, 0x00, 0x00, 0x00, 0x01, 0x00, 0x00, 0x00, 0x4f, 0x00, 0x00, 0x00,
  0x0a, 0x00, 0x00, 0x00, 0x03, 0x00, 0x00, 0x00, 0xc6, 0xfc, 0xff, 0xff,
  0x00, 0x00, 0x00, 0x01, 0x10, 0x00, 0x00, 0x00, 0x10, 0x00, 0x00, 0x00,
  0x0c, 0x00, 0x00, 0x00, 0x88, 0x00, 0x00, 0x00, 0x48, 0xfc, 0xff, 0xff,
  0x79, 0x00, 0x00, 0x00, 0x74, 0x69, 0x6e, 0x79, 0x5f, 0x74, 0x65, 0x6d,
  0x70, 0x6f, 0x72, 0x61, 0x6c, 0x5f, 0x35, 0x6b, 0x62, 0x5f, 0x31, 0x2f,
  0x63, 0x6f, 0x6e, 0x76, 0x32, 0x64, 0x5f, 0x31, 0x35, 0x5f, 0x31, 0x2f,
  0x52, 0x65, 0x6c, 0x75, 0x3b, 0x74, 0x69, 0x6e, 0x79, 0x5f, 0x74, 0x65,
  0x6d, 0x70, 0x6f, 0x72, 0x61, 0x6c, 0x5f, 0x35, 0x6b, 0x62, 0x5f, 0x31,
  0x2f, 0x63, 0x6f, 0x6e, 0x76, 0x32, 0x64, 0x5f, 0x31, 0x35, 0x5f, 0x31,
  0x2f, 0x42, 0x69, 0x61, 0x73, 0x41, 0x64, 0x64, 0x3b, 0x74, 0x69, 0x6e,
  0x79, 0x5f, 0x74, 0x65, 0x6d, 0x70, 0x6f, 0x72, 0x61, 0x6c, 0x5f, 0x35,
  0x6b, 0x62, 0x5f, 0x31, 0x2f, 0x63, 0x6f, 0x6e, 0x76, 0x32, 0x64, 0x5f,
  0x31, 0x35, 0x5f, 0x31, 0x2f, 0x63, 0x6f, 0x6e, 0x76, 0x6f, 0x6c, 0x75,
  0x74, 0x69, 0x6f, 0x6e, 0x3b, 0x00, 0x00, 0x00, 0x01, 0x00, 0x00, 0x00,
  0x03, 0x00, 0x00, 0x00, 0x6a, 0xfd, 0xff, 0xff, 0x00, 0x00, 0x00, 0x01,
  0x10, 0x00, 0x00, 0x00, 0x10, 0x00, 0x00, 0x00, 0x0b, 0x00, 0x00, 0x00,
  0x38, 0x00, 0x00, 0x00, 0xec, 0xfc, 0xff, 0xff, 0x2b, 0x00, 0x00, 0x00,
  0x74, 0x69, 0x6e, 0x79, 0x5f, 0x74, 0x65, 0x6d, 0x70, 0x6f, 0x72, 0x61,
  0x6c, 0x5f, 0x35, 0x6b, 0x62, 0x5f, 0x31, 0x2f, 0x63, 0x6f, 0x6e, 0x76,
  0x32, 0x64, 0x5f, 0x31, 0x35, 0x5f, 0x31, 0x2f, 0x63, 0x6f, 0x6e, 0x76,
  0x6f, 0x6c, 0x75, 0x74, 0x69, 0x6f, 0x6e, 0x00, 0x04, 0x00, 0x00, 0x00,
  0x03, 0x00, 0x00, 0x00, 0x07, 0x00, 0x00, 0x00, 0x03, 0x00, 0x00, 0x00,
  0x01, 0x00, 0x00, 0x00, 0x00, 0x00, 0x16, 0x00, 0x1c, 0x00, 0x18, 0x00,
  0x17, 0x00, 0x10, 0x00, 0x0c, 0x00, 0x08, 0x00, 0x00, 0x00, 0x00, 0x00,
  0x00, 0x00, 0x07, 0x00, 0x16, 0x00, 0x00, 0x00, 0x00, 0x00, 0x00, 0x01,
  0x14, 0x00, 0x00, 0x00, 0x14, 0x00, 0x00, 0x00, 0x0a, 0x00, 0x00, 0x00,
  0x00, 0x00, 0x00, 0x02, 0x54, 0x00, 0x00, 0x00, 0x68, 0xfd, 0xff, 0xff,
  0x47, 0x00, 0x00, 0x00, 0x74, 0x69, 0x6e, 0x79, 0x5f, 0x74, 0x65, 0x6d,
  0x70, 0x6f, 0x72, 0x61, 0x6c, 0x5f, 0x35, 0x6b, 0x62, 0x5f, 0x31, 0x2f,
  0x67, 0x6c, 0x6f, 0x62, 0x61, 0x6c, 0x5f, 0x61, 0x76, 0x65, 0x72, 0x61,
  0x67, 0x65, 0x5f, 0x70, 0x6f, 0x6f, 0x6c, 0x69, 0x6e, 0x67, 0x32, 0x64,
  0x5f, 0x35, 0x5f, 0x31, 0x2f, 0x4d, 0x65, 0x61, 0x6e, 0x2f, 0x72, 0x65,
  0x64, 0x75, 0x63, 0x74, 0x69, 0x6f, 0x6e, 0x5f, 0x69, 0x6e, 0x64, 0x69,
  0x63, 0x65, 0x73, 0x00, 0x01, 0x00, 0x00, 0x00, 0x02, 0x00, 0x00, 0x00,
  0x56, 0xfe, 0xff, 0xff, 0x00, 0x00, 0x00, 0x01, 0x10, 0x00, 0x00, 0x00,
  0x10, 0x00, 0x00, 0x00, 0x09, 0x00, 0x00, 0x00, 0x1c, 0x00, 0x00, 0x00,
  0xd8, 0xfd, 0xff, 0xff, 0x0f, 0x00, 0x00, 0x00, 0x61, 0x72, 0x69, 0x74,
  0x68, 0x2e, 0x63, 0x6f, 0x6e, 0x73, 0x74, 0x61, 0x6e, 0x74, 0x37, 0x00,
  0x02, 0x00, 0x00, 0x00, 0x0a, 0x00, 0x00, 0x00, 0x0a, 0x00, 0x00, 0x00,
  0x92, 0xfe, 0xff, 0xff, 0x00, 0x00, 0x00, 0x01, 0x10, 0x00, 0x00, 0x00,
  0x10, 0x00, 0x00, 0x00, 0x08, 0x00, 0x00, 0x00, 0x1c, 0x00, 0x00, 0x00,
  0x14, 0xfe, 0xff, 0xff, 0x0f, 0x00, 0x00, 0x00, 0x61, 0x72, 0x69, 0x74,
  0x68, 0x2e, 0x63, 0x6f, 0x6e, 0x73, 0x74, 0x61, 0x6e, 0x74, 0x36, 0x00,
  0x02, 0x00, 0x00, 0x00, 0x01, 0x00, 0x00, 0x00, 0x0a, 0x00, 0x00, 0x00,
  0xce, 0xfe, 0xff, 0xff, 0x00, 0x00, 0x00, 0x01, 0x10, 0x00, 0x00, 0x00,
  0x10, 0x00, 0x00, 0x00, 0x07, 0x00, 0x00, 0x00, 0x1c, 0x00, 0x00, 0x00,
  0x50, 0xfe, 0xff, 0xff, 0x0f, 0x00, 0x00, 0x00, 0x61, 0x72, 0x69, 0x74,
  0x68, 0x2e, 0x63, 0x6f, 0x6e, 0x73, 0x74, 0x61, 0x6e, 0x74, 0x35, 0x00,
  0x04, 0x00, 0x00, 0x00, 0x06, 0x00, 0x00, 0x00, 0x05, 0x00, 0x00, 0x00,
  0x03, 0x00, 0x00, 0x00, 0x03, 0x00, 0x00, 0x00, 0x12, 0xff, 0xff, 0xff,
  0x00, 0x00, 0x00, 0x01, 0x10, 0x00, 0x00, 0x00, 0x10, 0x00, 0x00, 0x00,
  0x06, 0x00, 0x00, 0x00, 0x1c, 0x00, 0x00, 0x00, 0x94, 0xfe, 0xff, 0xff,
  0x0f, 0x00, 0x00, 0x00, 0x61, 0x72, 0x69, 0x74, 0x68, 0x2e, 0x63, 0x6f,
  0x6e, 0x73, 0x74, 0x61, 0x6e, 0x74, 0x34, 0x00, 0x04, 0x00, 0x00, 0x00,
  0x0a, 0x00, 0x00, 0x00, 0x03, 0x00, 0x00, 0x00, 0x03, 0x00, 0x00, 0x00,
  0x06, 0x00, 0x00, 0x00, 0x56, 0xff, 0xff, 0xff, 0x00, 0x00, 0x00, 0x01,
  0x10, 0x00, 0x00, 0x00, 0x10, 0x00, 0x00, 0x00, 0x05, 0x00, 0x00, 0x00,
  0x1c, 0x00, 0x00, 0x00, 0xd8, 0xfe, 0xff, 0xff, 0x0f, 0x00, 0x00, 0x00,
  0x61, 0x72, 0x69, 0x74, 0x68, 0x2e, 0x63, 0x6f, 0x6e, 0x73, 0x74, 0x61,
  0x6e, 0x74, 0x33, 0x00, 0x01, 0x00, 0x00, 0x00, 0x01, 0x00, 0x00, 0x00,
  0x8e, 0xff, 0xff, 0xff, 0x00, 0x00, 0x00, 0x01, 0x10, 0x00, 0x00, 0x00,
  0x10, 0x00, 0x00, 0x00, 0x04, 0x00, 0x00, 0x00, 0x1c, 0x00, 0x00, 0x00,
  0x10, 0xff, 0xff, 0xff, 0x0f, 0x00, 0x00, 0x00, 0x61, 0x72, 0x69, 0x74,
  0x68, 0x2e, 0x63, 0x6f, 0x6e, 0x73, 0x74, 0x61, 0x6e, 0x74, 0x32, 0x00,
  0x01, 0x00, 0x00, 0x00, 0x06, 0x00, 0x00, 0x00, 0xc6, 0xff, 0xff, 0xff,
  0x00, 0x00, 0x00, 0x01, 0x10, 0x00, 0x00, 0x00, 0x10, 0x00, 0x00, 0x00,
  0x03, 0x00, 0x00, 0x00, 0x1c, 0x00, 0x00, 0x00, 0x48, 0xff, 0xff, 0xff,
  0x0f, 0x00, 0x00, 0x00, 0x61, 0x72, 0x69, 0x74, 0x68, 0x2e, 0x63, 0x6f,
  0x6e, 0x73, 0x74, 0x61, 0x6e, 0x74, 0x31, 0x00, 0x01, 0x00, 0x00, 0x00,
  0x0a, 0x00, 0x00, 0x00, 0x00, 0x00, 0x16, 0x00, 0x18, 0x00, 0x14, 0x00,
  0x00, 0x00, 0x10, 0x00, 0x0c, 0x00, 0x08, 0x00, 0x00, 0x00, 0x00, 0x00,
  0x00, 0x00, 0x07, 0x00, 0x16, 0x00, 0x00, 0x00, 0x00, 0x00, 0x00, 0x01,
  0x10, 0x00, 0x00, 0x00, 0x10, 0x00, 0x00, 0x00, 0x02, 0x00, 0x00, 0x00,
  0x1c, 0x00, 0x00, 0x00, 0x98, 0xff, 0xff, 0xff, 0x0e, 0x00, 0x00, 0x00,
  0x61, 0x72, 0x69, 0x74, 0x68, 0x2e, 0x63, 0x6f, 0x6e, 0x73, 0x74, 0x61,
  0x6e, 0x74, 0x00, 0x00, 0x01, 0x00, 0x00, 0x00, 0x0a, 0x00, 0x00, 0x00,
  0x00, 0x00, 0x16, 0x00, 0x1c, 0x00, 0x18, 0x00, 0x00, 0x00, 0x14, 0x00,
  0x10, 0x00, 0x0c, 0x00, 0x00, 0x00, 0x00, 0x00, 0x08, 0x00, 0x07, 0x00,
  0x16, 0x00, 0x00, 0x00, 0x00, 0x00, 0x00, 0x01, 0x14, 0x00, 0x00, 0x00,
  0x28, 0x00, 0x00, 0x00, 0x28, 0x00, 0x00, 0x00, 0x01, 0x00, 0x00, 0x00,
  0x44, 0x00, 0x00, 0x00, 0x04, 0x00, 0x00, 0x00, 0xff, 0xff, 0xff, 0xff,
  0x4f, 0x00, 0x00, 0x00, 0x0a, 0x00, 0x00, 0x00, 0x01, 0x00, 0x00, 0x00,
  0x04, 0x00, 0x04, 0x00, 0x04, 0x00, 0x00, 0x00, 0x1f, 0x00, 0x00, 0x00,
  0x73, 0x65, 0x72, 0x76, 0x69, 0x6e, 0x67, 0x5f, 0x64, 0x65, 0x66, 0x61,
  0x75, 0x6c, 0x74, 0x5f, 0x69, 0x6e, 0x70, 0x75, 0x74, 0x5f, 0x6c, 0x61,
  0x79, 0x65, 0x72, 0x5f, 0x35, 0x3a, 0x30, 0x00, 0x04, 0x00, 0x00, 0x00,
  0x01, 0x00, 0x00, 0x00, 0x4f, 0x00, 0x00, 0x00, 0x0a, 0x00, 0x00, 0x00,
  0x01, 0x00, 0x00, 0x00, 0x05, 0x00, 0x00, 0x00, 0x50, 0x00, 0x00, 0x00,
  0x34, 0x00, 0x00, 0x00, 0x24, 0x00, 0x00, 0x00, 0x14, 0x00, 0x00, 0x00,
  0x04, 0x00, 0x00, 0x00, 0xd0, 0xff, 0xff, 0xff, 0x0e, 0x00, 0x00, 0x00,
  0x00, 0x00, 0x00, 0x0e, 0xdc, 0xff, 0xff, 0xff, 0x09, 0x00, 0x00, 0x00,
  0x00, 0x00, 0x00, 0x09, 0xe8, 0xff, 0xff, 0xff, 0x28, 0x00, 0x00, 0x00,
  0x00, 0x00, 0x00, 0x28, 0xf4, 0xff, 0xff, 0xff, 0x11, 0x00, 0x00, 0x00,
  0x00, 0x00, 0x00, 0x11, 0x0c, 0x00, 0x0c, 0x00, 0x0b, 0x00, 0x00, 0x00,
  0x00, 0x00, 0x04, 0x00, 0x0c, 0x00, 0x00, 0x00, 0x03, 0x00, 0x00, 0x00,
  0x00, 0x00, 0x00, 0x03
};


#endif // TINY_TEMPORAL_5KB_H
